[PAD]
[UNK]
[CLS]
[SEP]
[MASK]
!
"
#
$
%
&
'
(
)
*
+
,
-
.
/
0
1
2
3
4
5
6
7
8
9
:
;
<
=
>
?
@
A
B
C
D
E
F
G
H
I
J
K
L
M
N
O
P
Q
R
S
T
U
V
W
X
Y
Z
[
\
]
^
_
`
a
b
c
d
e
f
g
h
i
j
k
l
m
n
o
p
q
r
s
t
u
v
w
x
y
z
{
|
}
~
§
«
®
°
±
²
³
´
·
¹
»
×
à
á
ä
ç
è
é
í
ó
ö
÷
ü
ā
ɪ
ɴ
ʔ
ʕ
ʟ
˂
˃
ː
˘
˙
˚
˝
̀
́
̄
̆
̈
̊
̎
̑
̣
̥
̩
̫
̴
̵
̶
̷
͈
͡
΄
Δ
α
β
ε
ι
λ
μ
ο
π
σ
ω
А
В
Д
И
К
М
П
Р
С
а
б
в
г
д
е
ж
з
и
й
к
л
м
н
о
п
р
с
т
у
ф
х
ц
ч
ш
щ
ы
ь
ю
я
ا
و
٩
ෆ
๑
ღ
ᄀ
ᄂ
ᄃ
ᄅ
ᄉ
ᄋ
ᄏ
ᄒ
ᅡ
ᅵ
ᆞ
ᆡ
ᆫ
ᆯ
ᴀ
ᴇ
ᴏ
ᴗ
ᴛ
ᴜ
ᴥ
ᴬ
ᴱ
ᴼ
ᵀ
–
—
―
‘
’
“
”
•
․
‥
…
‧
′
″
※
‼
⁉
⁴
₁
₂
₩
⃣
℃
ℓ
™
⅓
⅔
Ⅰ
Ⅱ
Ⅲ
Ⅳ
Ⅴ
Ⅵ
Ⅹ
ⅰ
ⅱ
←
↑
→
↓
↔
↘
↙
⇒
∑
∘
∙
∠
∥
∧
∼
≪
≫
⊙
⋅
①
②
③
④
⑤
⑥
⑦
⑧
⑨
⑩
⑪
⑫
⑬
⑭
⑴
⑵
⑶
⑷
⑸
⒜
⒝
⒞
ⓐ
ⓑ
ⓒ
ⓓ
─
━
│
┃
┬
■
□
▣
▨
▪
▫
▲
△
▶
▷
▼
▽
◀
◆
◇
◈
○
◎
●
◐
◞
◡
☀
☁
☄
★
☆
☎
☏
☑
☔
☕
☘
☝
☞
☠
☢
☹
☺
♀
♂
♠
♡
♣
♥
♦
♨
♩
♪
♬
⚠
⚡
⛔
✂
✅
✈
✊
✋
✌
✍
✔
✧
✨
✳
✿
❄
❌
❎
❓
❗
❛
❣
❤
❶
❷
❸
➊
➋
➖
➡
➰
⠀
⫬
⭐
⭕
、
。
〃
〈
〉
《
》
「
」
『
』
【
】
〓
〔
〕
〜
〰
あ
い
う
え
お
か
が
き
く
け
こ
さ
し
す
そ
た
だ
ち
っ
つ
て
で
と
な
に
ぬ
の
は
ま
み
め
も
ゃ
よ
ら
り
る
れ
わ
を
ん
ア
ィ
イ
ウ
ェ
カ
キ
ギ
ク
グ
ケ
コ
シ
ジ
ス
ソ
タ
ダ
チ
ッ
テ
ト
ド
ニ
ノ
バ
ヒ
フ
ブ
プ
ポ
マ
ミ
ム
メ
ラ
リ
ル
レ
ロ
ン
・
ー
ㄱ
ㄲ
ㄳ
ㄴ
ㄷ
ㄸ
ㄹ
ㄺ
ㅁ
ㅂ
ㅃ
ㅄ
ㅅ
ㅆ
ㅇ
ㅈ
ㅉ
ㅊ
ㅋ
ㅌ
ㅍ
ㅎ
ㅏ
ㅐ
ㅑ
ㅓ
ㅔ
ㅕ
ㅖ
ㅗ
ㅛ
ㅜ
ㅠ
ㅡ
ㅢ
ㅣ
ㅤ
ㆍ
㈎
㈏
㈐
㈑
㈔
㈜
㉠
㉡
㉢
㉣
㉤
㉮
㉯
㉰
㉱
㊗
㎉
㎍
㎎
㎏
㎐
㎒
㎓
㎖
㎗
㎘
㎚
㎛
㎜
㎝
㎞
㎠
㎡
㎢
㎥
㎸
㎾
㎿
㏄
㏈
㏊
一
丁
七
丈
三
上
下
不
丑
且
世
丘
丙
中
丹
主
乃
久
之
乎
乘
乙
九
也
乾
亂
了
予
事
二
于
云
互
五
井
亞
亡
交
亥
亦
亨
享
京
亭
人
仁
今
介
仕
他
付
仙
代
令
以
仰
仲
件
任
企
伊
伏
伐
休
伯
似
但
位
低
住
佐
何
余
佛
作
佳
使
來
例
侍
供
依
侯
侵
便
係
俊
俗
保
信
修
倂
倉
個
候
借
値
倫
倭
假
偏
停
健
側
偶
備
傭
傳
債
傷
傾
像
僕
僞
僧
價
儀
儒
償
優
允
元
兄
充
兆
先
光
克
免
兒
入
內
全
兩
兪
八
公
六
兮
共
兵
其
具
典
兼
冊
再
冠
冬
凡
凶
出
刀
分
切
刊
刑
列
初
判
別
利
到
制
券
刺
刻
則
剋
前
剛
副
割
創
劃
劇
劍
力
功
加
助
勇
動
務
勝
勞
勢
勤
勳
勸
勿
包
化
北
匠
區
十
千
午
半
卑
卒
協
南
博
占
卦
卯
印
危
却
卷
卽
卿
厚
原
去
參
又
及
友
反
叔
取
受
叛
叢
口
古
句
只
召
可
台
史
右
司
各
合
吉
同
名
后
吏
向
君
否
吳
吾
告
周
味
呼
命
和
咸
哀
品
哉
員
哭
哲
唐
唯
唱
商
問
啓
善
喜
喪
單
嘉
嘗
器
嚴
四
回
因
困
固
国
圈
國
圍
園
圓
圖
團
土
在
圭
地
均
坐
坤
型
城
域
執
基
堂
堅
堯
報
場
塔
境
墓
增
墨
壁
壇
壓
士
壬
壯
壽
夏
夕
外
多
夜
夢
大
天
太
夫
央
失
夷
奇
奉
奎
奏
契
奪
女
奴
好
如
妃
妄
妓
妙
妻
妾
始
姓
委
姜
姻
威
娘
婚
婢
婦
子
孔
字
存
孝
孟
季
孤
孫
學
宇
守
安
宋
完
宗
官
定
宜
客
宣
室
宮
宰
害
家
容
宿
寂
寄
寅
密
富
寒
察
寡
實
寧
審
寫
寬
寶
寺
封
射
將
專
尉
尊
尋
對
導
小
少
尙
尤
就
尹
尺
尼
尾
局
居
屈
屋
展
層
履
屬
山
岡
岩
岳
岸
峰
島
崇
崎
崔
嶺
巖
川
州
巡
工
左
巨
巫
差
己
已
巳
市
布
希
帝
師
席
帶
常
干
平
年
幸
幻
幼
幽
幾
序
底
店
庚
府
度
座
庫
庭
庵
庶
康
庸
廟
廢
廣
廳
延
廷
建
弊
式
弓
引
弗
弘
弟
弱
張
强
弼
彈
彌
形
彦
影
役
彼
往
征
待
律
後
徐
徒
得
從
御
復
微
徵
德
心
必
忌
忍
志
忘
忠
念
忽
怒
思
急
性
怨
怪
恐
恒
恨
恩
恭
息
悅
悟
患
悲
情
惟
惠
惡
想
意
愚
愛
感
愼
慈
態
慕
慣
慧
慮
慶
慾
憂
憲
應
懲
懷
戊
戌
成
我
戒
或
戰
戱
戶
房
所
手
才
扶
批
承
技
投
抗
折
抵
拒
拘
招
拜
括
持
指
振
捕
授
掌
排
接
推
措
提
揚
換
揭
援
損
撰
擇
擊
操
擔
據
擧
擬
支
收
改
攻
放
政
故
效
敍
敎
敏
救
敗
敢
散
敦
敬
整
敵
數
文
斗
料
斥
斯
新
斷
方
於
施
旅
族
旗
旣
日
旨
早
昇
昌
明
易
昔
星
映
春
昭
是
時
晉
晋
晩
普
景
智
暗
暴
曆
曉
曰
曲
更
書
曹
曾
最
會
月
有
服
朔
望
朝
期
木
未
末
本
朱
朴
李
材
村
杖
杜
束
東
松
板
林
果
枝
某
柱
柳
査
校
株
核
根
格
桂
桃
案
桓
梁
梅
條
棄
植
楊
楚
業
極
榮
構
槪
樂
樓
標
模
樣
樹
橋
機
橫
檀
檢
權
次
欲
欺
款
歌
歐
止
正
此
步
武
歲
歷
歸
死
殊
殘
段
殷
殺
殿
母
每
毒
比
毛
氏
民
氣
水
永
求
汝
江
池
決
沈
沒
沙
河
油
治
況
泉
法
波
注
泰
洋
洙
洞
津
洪
洲
活
派
流
浦
浩
浮
海
消
涉
淑
淨
淫
深
淳
淵
混
淸
減
渡
港
渾
湖
湯
源
準
溪
溫
滅
滯
滿
演
漢
漸
潤
潮
澤
濟
灣
火
災
炳
烈
烏
焉
無
然
煥
照
熙
熟
熱
燈
燕
營
爭
爲
父
爾
片
版
牛
牧
物
特
犬
犯
狀
狂
猶
獄
獨
獸
獻
玄
率
玉
王
珍
珠
班
現
球
理
琴
瑕
瑞
環
甘
甚
生
産
用
甫
田
由
甲
申
男
町
界
畏
留
略
異
畵
當
疏
疑
疵
疾
病
痛
癸
登
發
白
百
的
皆
皇
皮
益
盛
盜
盟
盡
監
盤
目
直
相
省
看
眞
眼
着
督
矣
知
短
石
破
硏
碑
確
示
社
祀
祖
祝
神
祠
祥
票
祭
祿
禁
禍
福
禪
禮
禹
秀
私
秉
秋
科
秘
租
秦
秩
移
稅
程
種
稱
稷
稿
穀
穆
積
究
空
窮
立
章
童
端
競
竹
笑
符
第
筆
等
答
策
箕
算
管
節
範
篇
簡
簿
籍
米
精
系
紀
約
紅
納
純
紙
級
素
索
紫
細
終
組
結
給
統
絶
經
維
綱
緊
線
緣
編
縣
總
織
繼
續
缺
罪
置
罰
署
羅
羊
美
群
義
羽
翁
習
翰
翼
老
考
者
而
耕
耳
耶
聖
聞
聯
聲
職
聽
肅
肉
肯
育
背
胎
胡
能
脈
脫
臣
臨
自
至
致
臺
與
興
舊
舍
舜
舞
舟
航
般
舶
船
良
色
花
芳
苑
若
苦
英
茂
茶
草
荒
荷
莊
莫
華
萬
落
葉
著
葛
葬
蒙
蓋
蔡
薄
藏
藝
藤
藥
藩
蘇
蘭
虎
處
虛
虞
號
融
血
衆
行
術
街
衛
衡
衣
表
衰
被
裁
補
裝
製
複
襲
西
要
見
規
視
親
覺
覽
觀
角
解
言
計
討
訓
託
記
訟
訥
訪
設
許
訴
註
詐
評
詞
試
詩
話
誌
認
語
誠
誤
說
誰
課
調
談
請
論
諫
諸
諾
謀
謂
謙
講
謝
謠
證
識
譜
警
譯
議
護
讀
變
讓
谷
豈
豊
象
豪
豫
貞
負
財
貢
貧
貨
貫
責
貴
買
貸
費
貿
賀
賃
資
賊
賓
賜
賞
賠
賢
賣
賤
賦
質
賴
贈
贊
赤
走
起
超
越
趙
足
路
身
車
軍
軒
較
載
輔
輕
輯
輸
輿
轉
辛
辨
辭
辯
辰
農
迅
迎
近
返
迫
述
追
退
送
逆
通
造
連
進
逸
遂
遇
遊
運
過
道
達
違
遠
遡
遣
適
遲
遷
選
遺
避
還
邊
邑
那
邦
邪
郞
郡
部
郭
都
鄕
鄭
酉
配
酒
醫
釋
里
重
野
量
金
針
銀
銅
銘
錄
錢
錦
錫
錯
鍾
鎭
鏡
鐵
鑑
長
門
開
閑
間
閔
閣
闕
關
防
阿
附
降
限
院
陣
除
陰
陳
陵
陶
陸
陽
隆
隊
階
際
障
隨
險
隱
雄
雅
集
雖
雙
雜
離
難
雨
雪
雲
電
震
露
靈
靑
靖
靜
非
面
革
韓
音
韻
項
順
須
頌
領
頭
題
額
顔
願
類
顧
顯
風
飛
食
飮
養
餘
館
首
香
馬
駐
騎
驗
驛
骨
體
高
髮
鬪
鬼
魂
魏
魔
魚
鮮
鳥
鳳
鳴
鴻
鶴
鷄
麗
麻
黃
黑
默
點
黨
鼎
鼓
齊
齋
龍
꙼
가
각
갂
간
갇
갈
갉
감
갑
값
갓
갔
강
갖
갗
갘
같
갚
갛
개
객
갠
갤
갬
갭
갯
갰
갱
갲
갸
갹
갼
걀
걍
걑
걔
걘
걩
거
걱
건
걷
걸
검
겁
것
겄
겅
겆
겈
겉
겊
겋
게
겍
겐
겔
겜
겝
겟
겠
겡
겤
겧
겨
격
겪
견
결
겸
겹
겻
겼
경
곀
곁
계
곈
곗
곘
고
곡
곤
곧
골
곪
곬
곯
곰
곱
곳
공
곶
곸
과
곽
관
괄
괌
광
괘
괜
괞
괭
괴
괵
괸
괼
굉
교
굔
굣
굥
구
국
군
굳
굴
굵
굶
굻
굼
굽
굿
궁
궂
궃
궄
궈
궉
권
궐
궜
궤
궹
귀
귁
귄
귈
귐
귓
규
귝
균
귤
그
극
근
귿
글
긁
금
급
긋
긍
긑
긔
긕
기
긱
긴
긷
길
긿
김
깁
깃
깄
깅
깆
깈
깉
깊
까
깍
깎
깐
깔
깜
깝
깞
깟
깠
깡
깢
깤
깥
깨
깩
깬
깰
깸
깻
깼
깽
꺄
꺅
꺠
꺵
꺼
꺽
꺾
껀
껄
껌
껍
껏
껐
껑
께
껜
껫
껭
껴
꼇
꼈
꼍
꼐
꼬
꼭
꼰
꼴
꼼
꼽
꼿
꽁
꽂
꽃
꽈
꽉
꽌
꽐
꽝
꽤
꽥
꽹
꾀
꾐
꾜
꾸
꾹
꾼
꾿
꿀
꿇
꿈
꿉
꿋
꿍
꿎
꿏
꿔
꿘
꿜
꿧
꿨
꿩
꿰
꿴
뀌
뀐
뀔
뀜
뀝
뀨
끄
끅
끈
끊
끋
끌
끍
끓
끔
끕
끗
끙
끝
끠
끼
끽
낀
낄
낌
낍
낏
낑
나
낙
낚
난
낟
날
낡
남
납
낫
났
낭
낮
낯
낰
낱
낳
내
낵
낸
낼
냄
냅
냇
냈
냉
냐
냑
냔
냘
냠
냣
냥
냨
냬
너
넉
넋
넌
널
넒
넓
넘
넙
넛
넜
넝
넣
네
넥
넨
넬
넴
넵
넷
넸
넹
넼
녀
녁
년
녈
념
녓
녔
녕
녘
녜
녠
녤
노
녹
논
놀
놈
놉
놋
농
놐
높
놓
놔
놧
놨
놯
놰
뇌
뇐
뇨
뇬
뇰
뇸
뇽
누
눅
눈
눌
눔
눕
눗
눙
눞
눟
눠
눴
눼
뉘
뉜
뉠
뉨
뉩
뉴
뉸
뉼
늄
늉
느
늑
는
늕
늗
늘
늙
늠
늣
능
늦
늧
늪
늫
늬
니
닉
닌
닏
닐
님
닙
닛
닜
닝
닞
닠
닢
다
닥
닦
단
닫
달
닭
닮
닯
닳
담
답
닶
닷
당
닺
닻
닼
닽
닿
대
댁
댄
댈
댐
댑
댓
댔
댕
댘
댜
댠
댱
댸
더
덕
덖
던
덜
덟
덤
덥
덧
덩
덫
덮
덯
데
덱
덴
델
뎀
뎁
뎃
뎄
뎅
뎈
뎌
뎐
뎠
뎡
뎨
뎬
도
독
돈
돋
돌
돔
돕
돗
동
돚
돛
돜
돝
돟
돠
돤
돨
돼
됀
됄
됌
됍
됏
됐
되
된
될
됨
됩
됫
됬
됭
됴
둉
두
둑
둔
둘
둠
둡
둣
둥
둬
둿
뒀
뒈
뒤
뒷
뒹
듀
듁
듄
듈
듐
듕
드
득
든
듣
들
듦
듬
듭
듯
등
듵
듷
듸
딋
딍
디
딕
딘
딛
딜
딤
딥
딧
딨
딩
딪
딫
따
딱
딲
딴
딸
딹
땀
땁
땃
땄
땅
땋
때
땍
땐
땔
땜
땝
땟
땠
땡
땨
떄
떈
떔
떙
떠
떡
떢
떤
떨
떫
떰
떱
떳
떴
떵
떻
떼
떽
뗀
뗄
뗌
뗏
뗐
뗑
뗘
뗴
또
똑
똔
똘
똠
똣
똥
똬
똭
뙇
뙈
뙤
뙨
뚜
뚝
뚠
뚤
뚫
뚯
뚱
뛔
뛰
뛴
뛸
뜀
뜁
뜨
뜩
뜬
뜯
뜰
뜷
뜸
뜹
뜻
뜽
뜾
띁
띄
띈
띌
띔
띕
띠
띡
띤
띨
띱
띵
라
락
란
랃
랄
람
랍
랏
랐
랑
랒
랔
랖
랗
래
랙
랜
랠
램
랩
랫
랬
랭
랰
랴
략
랸
랼
럄
럈
량
럐
러
럭
런
럴
럼
럽
럿
렀
렁
렇
레
렉
렌
렐
렘
렙
렛
렜
렝
렠
려
력
련
렬
렴
렵
렷
렸
령
렿
례
롄
로
록
론
롤
롬
롭
롯
롱
롴
롷
롸
롹
롼
뢀
뢔
뢰
뢴
뢸
룀
료
룐
룔
룟
룡
루
룩
룬
룰
룸
룹
룻
룽
뤄
뤈
뤌
뤘
뤠
뤡
뤼
뤽
륀
륄
륌
류
륙
륜
률
륨
륭
르
륵
른
를
름
릅
릇
릉
릎
릏
릐
리
릭
린
릴
림
립
릿
맀
링
맄
맇
마
막
만
많
맏
말
맑
맗
맘
맙
맛
맜
망
맞
맟
맠
맡
맣
매
맥
맨
맬
맴
맵
맷
맸
맹
맺
먀
먄
먈
먐
먕
먜
머
먹
먼
멀
멈
멉
멊
멋
멍
멎
멏
멓
메
멕
멘
멜
멤
멥
멧
멨
멩
며
멱
면
멸
몀
몃
몄
명
몆
몇
몈
몌
몐
모
목
몪
몫
몬
몯
몰
몸
몹
못
몽
몾
뫃
뫄
뫼
묀
묄
묏
묘
묜
묫
묭
무
묵
묶
문
묹
묻
물
묽
뭄
뭅
뭇
뭉
뭍
뭏
뭐
뭔
뭘
뭡
뭣
뭤
뭥
뭬
뮈
뮌
뮐
뮛
뮤
뮨
뮬
뮴
므
믁
믄
믈
믐
믓
믕
믜
미
믹
민
믽
믾
믿
밀
밈
밉
밋
밌
밍
밎
및
밑
바
박
밖
반
받
발
밝
밞
밟
밢
밣
밤
밥
밧
밨
방
밪
밬
밭
배
백
밴
밷
밸
뱀
뱁
뱃
뱄
뱅
뱉
뱌
뱍
뱐
뱔
뱡
버
벅
번
벋
벌
범
법
벗
벙
벚
벞
베
벡
벤
벧
벨
벰
벱
벳
벵
벹
벼
벽
변
별
볌
볍
볏
볐
병
볓
볕
볗
볘
볜
보
복
볶
본
볼
봄
봅
봇
봉
봊
봐
봘
봣
봤
봥
봨
봬
뵀
뵈
뵌
뵐
뵘
뵙
뵜
뵤
뵨
뵹
부
북
분
붇
불
붉
붐
붑
붓
붕
붘
붙
붜
붤
붱
붸
뷔
뷜
뷩
뷰
뷱
뷴
뷸
븀
븅
브
븍
븐
블
븡
븥
븨
븽
비
빅
빈
빋
빌
빔
빕
빗
빙
빚
빛
빠
빡
빢
빤
빨
빩
빰
빱
빳
빴
빵
빻
빼
빽
뺀
뺃
뺄
뺌
뺍
뺏
뺐
뺑
뺘
뺠
뺨
뺴
뻇
뻐
뻑
뻔
뻗
뻘
뻡
뻣
뻤
뻥
뻬
뻴
뼈
뼉
뼘
뼛
뼝
뽀
뽁
뽂
뽄
뽈
뽐
뽑
뽕
뽜
뽝
뽤
뾰
뿅
뿌
뿍
뿐
뿔
뿜
뿟
뿡
쀼
쁘
쁜
쁠
쁨
쁩
삐
삑
삔
삘
삣
삥
사
삭
삯
산
살
삵
삶
삻
삼
삽
삿
샀
상
샅
샆
샇
새
색
샊
샋
샌
샏
샐
샘
샙
샛
샜
생
샠
샡
샣
샤
샥
샨
샬
샴
샵
샷
샹
샾
섀
섁
섕
서
석
섞
선
섣
설
섦
섬
섭
섯
섰
성
섴
섶
세
섹
섺
센
셀
셈
셉
셋
셌
셍
셐
셑
셓
셔
셕
션
셜
셤
셥
셧
셨
셩
셰
셱
셴
셸
솅
소
속
솎
손
솓
솔
솜
솝
솟
송
솤
솥
솨
솰
솽
쇄
쇅
쇆
쇗
쇠
쇤
쇳
쇼
쇽
숀
숄
숌
숍
숏
숑
수
숙
순
숟
술
숨
숩
숫
숭
숯
숱
숲
숴
숵
숸
숼
쉅
쉈
쉐
쉑
쉒
쉔
쉘
쉣
쉥
쉨
쉬
쉭
쉰
쉴
쉼
쉽
쉿
슁
슈
슉
슌
슐
슘
슙
슛
슝
스
슥
슨
슬
슭
슴
습
슷
승
슼
슾
싀
싄
싈
싑
시
식
신
싢
싣
실
싨
싫
심
십
싯
싰
싱
싳
싴
싶
싷
싸
싹
싼
쌀
쌂
쌈
쌉
쌋
쌌
쌍
쌓
쌔
쌕
쌖
쌘
쌤
쌨
쌩
쌰
썅
썌
써
썩
썪
썬
썰
썸
썹
썻
썼
썽
쎀
쎄
쎅
쎈
쎌
쎔
쎘
쎠
쎼
쏘
쏙
쏜
쏟
쏠
쏨
쏩
쏫
쏭
쏱
쏴
쏵
쏼
쐇
쐈
쐐
쐑
쐬
쐴
쑈
쑤
쑥
쑨
쑬
쑴
쑵
쑹
쒀
쒜
쒝
쒞
쒸
쒼
쓉
쓔
쓰
쓱
쓴
쓸
씀
씁
씅
씌
씐
씝
씨
씩
씬
씰
씸
씹
씻
씼
씽
앂
아
악
안
앉
않
앋
알
앍
앎
앓
암
압
앖
앗
았
앙
앚
앜
앝
앞
앟
애
액
앤
앨
앰
앱
앳
앴
앵
야
약
얀
얄
얇
얌
얍
얏
얐
양
얔
얕
얗
얘
얜
어
억
얶
언
얹
얺
얻
얼
얽
엄
업
없
엇
었
엉
엊
엌
엎
엏
에
엑
엔
엘
엠
엡
엣
엤
엥
엨
여
역
엮
연
열
엷
염
엽
엾
엿
였
영
옄
옅
옆
옇
예
옌
옐
옘
옙
옛
옜
오
옥
온
올
옭
옮
옳
옴
옵
옶
옷
옹
옺
옻
옼
옿
와
왁
완
왈
왐
왑
왓
왔
왕
왘
왜
왝
왠
왤
왱
외
왹
왼
욀
욋
욌
욍
요
욕
욘
욜
욤
욥
욧
용
욬
욯
우
욱
운
울
욹
움
웁
웂
웃
웅
워
웍
원
월
웜
웟
웠
웡
웤
웨
웩
웬
웰
웸
웹
웻
웽
위
윅
윈
윌
윔
윕
윗
윘
윙
유
육
윤
율
윰
윱
윳
융
윷
으
윽
윾
은
읁
읃
을
읇
읊
음
읍
읎
읏
응
읔
읕
읖
읗
의
읜
읭
이
익
읶
인
읹
읺
읻
일
읽
읿
잃
임
입
잆
잇
있
잉
잊
잋
잌
잍
잎
잏
자
작
잔
잖
잗
잘
잠
잡
잣
잤
장
잦
잨
잪
잫
재
잭
잰
잴
잼
잽
잿
쟀
쟁
쟈
쟉
쟌
쟎
쟐
쟙
쟛
쟝
쟤
쟨
저
적
전
젇
절
젊
젋
점
접
젓
젔
정
젖
젙
젛
제
젝
젠
젤
젬
젭
젯
젱
져
젹
젼
졀
졋
졌
졍
졎
졓
졔
졘
조
족
존
졷
졸
좀
좁
좃
좄
종
좆
좇
좈
좉
좋
좌
좍
좔
좝
좟
좡
좥
좦
좨
죄
죈
죌
죕
죗
죙
죠
죡
죤
죧
죨
죳
죴
죵
죷
죸
죹
주
죽
준
줄
줌
줍
줏
중
줒
줗
줘
줙
줜
줠
줫
줬
줭
줮
줴
쥐
쥑
쥔
쥘
쥣
쥤
쥥
쥬
쥭
쥰
쥴
쥼
즁
즈
즉
즌
즐
즘
즙
즛
증
즤
즨
즹
지
직
진
짆
짇
질
짊
짐
집
짒
짓
짔
징
짖
짗
짘
짙
짚
짛
짜
짝
짠
짢
짤
짦
짧
짬
짭
짯
짰
짱
짴
째
짹
짼
쨈
쨉
쨋
쨌
쨍
쨔
쨘
쨩
쨰
쩌
쩍
쩐
쩔
쩜
쩝
쩟
쩡
쩨
쪄
쪈
쪕
쪘
쪙
쪹
쪼
쪽
쪾
쫀
쫄
쫌
쫍
쫏
쫑
쫒
쫓
쫗
쫘
쫙
쫩
쫭
쬐
쬔
쬬
쬭
쭈
쭉
쭌
쭐
쭘
쭙
쭛
쭝
쭤
쭵
쮜
쮸
쯔
쯕
쯤
쯥
쯧
쯩
쯪
찌
찍
찎
찐
찔
찜
찝
찟
찡
찢
찣
찧
차
착
찬
찮
찰
참
찹
찻
찼
창
찾
찿
채
책
챈
챌
챔
챕
챗
챘
챙
챠
챡
챤
챦
챨
챱
챵
처
척
천
철
첨
첩
첫
첬
청
첮
체
첵
첸
첼
쳄
쳇
쳉
쳐
쳑
쳔
쳣
쳤
쳥
쳬
초
촉
촌
촐
촘
촙
촛
총
촞
촟
촣
촤
촥
촨
촬
촵
촹
최
쵝
쵸
춍
추
축
춘
출
춤
춥
춧
충
춰
춴
췃
췄
췌
취
췬
츄
츈
츌
츙
츠
측
츤
츨
츰
츳
층
츼
칀
치
칙
친
칠
칡
침
칩
칫
칬
칭
칮
칰
카
칵
칸
칼
캄
캅
캇
캉
캍
캐
캑
캔
캘
캠
캡
캣
캤
캥
캬
캭
컄
커
컥
컨
컫
컬
컴
컵
컷
컸
컹
컾
케
켁
켄
켈
켐
켑
켓
켔
켕
켜
켠
켤
켬
켯
켰
켱
켸
코
콕
콘
콜
콤
콥
콧
콩
콰
콱
콴
콸
쾅
쾈
쾌
쾡
쾨
쾰
쿄
쿠
쿡
쿤
쿨
쿰
쿱
쿳
쿵
쿸
쿼
퀀
퀄
퀘
퀭
퀴
퀵
퀸
퀼
큅
큉
큐
큘
크
큭
큰
클
큼
큽
큿
킁
킄
킅
킈
키
킥
킨
킬
킴
킵
킷
킹
킼
타
탁
탄
탈
탉
탐
탑
탓
탔
탕
태
택
탠
탤
탬
탭
탯
탰
탱
탸
터
턱
턴
털
텀
텁
텃
텄
텅
텋
테
텍
텐
텔
템
텝
텟
텡
텨
텬
텼
톄
톈
토
톡
톤
톨
톰
톱
톳
통
톺
톼
퇄
퇘
퇫
퇴
툇
툥
투
툭
툰
툴
툼
툽
퉁
퉈
퉜
퉤
퉷
퉸
튀
튄
튈
튐
튓
튕
튜
튠
튤
튬
튭
트
특
튼
튿
틀
틈
틉
틋
틍
틑
틔
티
틱
틴
틸
팀
팁
팃
팅
파
팍
팎
판
팔
팜
팝
팟
팠
팡
팥
패
팩
팬
팰
팸
팹
팻
팼
팽
퍄
퍅
퍈
퍠
퍼
퍽
펀
펄
펌
펍
펏
펐
펑
페
펙
펜
펠
펨
펩
펫
펭
펴
편
펼
폄
폈
평
폐
포
폭
폰
폴
폼
폿
퐁
퐈
퐉
퐐
퐝
푀
표
푠
푯
푸
푹
푼
풀
풂
품
풉
풋
풍
퓌
퓨
퓰
퓸
프
픈
플
픔
픕
피
픽
핀
필
핌
핍
핏
핑
하
학
한
핝
핟
할
핡
핣
핥
핧
함
합
핫
핬
항
핮
핰
핱
핳
해
핵
핸
핼
햄
햅
햇
했
행
햌
햏
햐
햑
햔
햘
햝
햤
향
햬
헀
허
헉
헌
헐
험
헙
헛
헝
헠
헣
헤
헥
헨
헬
헴
헵
헷
헸
헹
헿
혀
혁
현
혈
혐
협
혓
혔
형
혜
호
혹
혼
홀
홈
홉
홋
홍
홑
홓
화
확
환
활
홥
홧
황
홰
홱
횃
회
획
횐
횔
횟
횡
효
횬
횽
후
훅
훈
훌
훑
훔
훕
훗
훙
훠
훤
훨
훼
훽
휀
휑
휘
휙
휜
휠
휨
휩
휭
휴
휼
흄
흉
흐
흑
흔
흘
흙
흠
흡
흣
흥
흩
흫
희
흰
흴
히
힉
힌
힐
힘
힙
힛
힝
힣
車
金
羅
樂
亂
來
勞
盧
老
魯
論
樂
異
復
不
沈
兩
梁
良
呂
女
歷
年
聯
連
列
烈
靈
領
例
禮
遼
龍
劉
柳
流
留
類
六
陸
律
利
履
易
李
理
離
林
臨
立
狀
茶
宅
︎
️
！
＂
＃
＄
％
＆
＇
（
）
＊
＋
，
－
．
／
：
；
＜
＝
＞
？
［
＼
］
＾
＿
｀
ｇ
ｍ
ｔ
｜
～
｡
｢
｣
･
￦
𖤐
🇨
🇭
🇯
🇰
🇳
🇵
🇷
🇸
🇹
🇺
🇼
🌈
🌊
🌋
🌙
🌚
🌛
🌜
🌝
🌞
🌟
🌩
🌱
🌲
🌳
🌴
🌶
🌷
🌸
🌹
🌺
🌻
🌼
🌽
🌿
🍀
🍁
🍂
🍃
🍅
🍆
🍇
🍉
🍊
🍋
🍌
🍎
🍏
🍑
🍒
🍓
🍔
🍕
🍖
🍗
🍚
🍜
🍝
🍞
🍟
🍠
🍡
🍣
🍤
🍦
🍩
🍪
🍫
🍭
🍯
🍰
🍲
🍳
🍴
🍵
🍷
🍺
🍻
🍼
🍽
🍾
🎀
🎁
🎂
🎃
🎄
🎅
🎆
🎈
🎉
🎊
🎗
🎤
🎧
🎬
🎵
🎶
🎸
🏃
🏊
🏠
🏻
🏼
🏽
🏾
🏿
🐀
🐁
🐂
🐅
🐈
🐍
🐎
🐑
🐒
🐓
🐔
🐕
🐖
🐗
🐙
🐟
🐣
🐤
🐥
🐦
🐩
🐭
🐮
🐯
🐰
🐱
🐴
🐵
🐶
🐷
🐸
🐻
🐽
🐾
👀
👄
👅
👆
👇
👈
👉
👊
👋
👌
👍
👎
👏
👑
👟
👣
👤
👥
👦
👧
👨
👩
👫
👭
👯
👴
👶
👹
👺
👻
👼
👽
👿
💀
💁
💃
💄
💋
💌
💍
💎
💐
💑
💓
💕
💖
💗
💘
💙
💚
💛
💜
💝
💞
💟
💡
💢
💣
💤
💥
💦
💧
💨
💩
💪
💫
💬
💯
💰
💳
💸
📌
📍
📖
📚
📝
📢
📣
📷
📸
📽
🔊
🔔
🔖
🔜
🔞
🔥
🔨
🔪
🔫
🔴
🔵
🔶
🔸
🔹
🔺
🕊
🕯
🕺
🖐
🖒
🖕
🖤
🗡
🗣
😀
😁
😂
😃
😄
😅
😆
😇
😈
😉
😊
😋
😌
😍
😎
😏
😐
😑
😒
😓
😔
😕
😖
😗
😘
😙
😚
😛
😜
😝
😞
😟
😠
😡
😢
😣
😤
😥
😧
😨
😩
😪
😫
😬
😭
😮
😯
😰
😱
😲
😳
😴
😵
😶
😷
😻
😽
🙀
🙂
🙃
🙄
🙅
🙆
🙇
🙈
🙉
🙊
🙋
🙌
🙏
🚀
🚗
🚨
🚩
🚫
🚴
🛑
🤐
🤑
🤓
🤔
🤗
🤘
🤟
🤡
🤢
🤣
🤤
🤦
🤧
🤨
🤩
🤪
🤫
🤬
🤭
🤮
🤯
🤷
🥄
🥇
🥊
🥐
🥑
🥕
🥖
🥗
🥛
🥢
🥰
🥳
🥶
🥺
🦀
🦁
🦅
🦍
🦐
🦜
🦶
🧀
🧐
🧚
🧡
##년
##버
##림
##속
##지
##켜
##보
##아
##야
##하
##나
##요
##알
##못
##닭
##이
##냐
##딩
##좀
##사
##면
##안
##돼
##합
##원
##뿐
##었
##습
##니
##다
##개
##피
##는
##국
##노
##래
##자
##랑
##든
##블
##탕
##판
##학
##과
##출
##석
##에
##게
##객
##복
##장
##런
##것
##들
##ㅋ
##세
##회
##화
##신
##비
##용
##동
##해
##죠
##마
##공
##천
##침
##까
##르
##걸
##어
##능
##력
##검
##정
##시
##험
##중
##은
##착
##을
##가
##고
##탈
##수
##있
##겠
##포
##건
##청
##셨
##거
##란
##영
##교
##체
##점
##절
##차
##옆
##네
##악
##범
##도
##닌
##데
##1
##저
##렸
##음
##파
##리
##서
##웁
##0
##ｍ
##상
##무
##느
##님
##반
##만
##라
##친
##머
##글
##락
##율
##팔
##문
##끼
##려
##억
##스
##령
##더
##금
##불
##업
##진
##행
##되
##산
##∼
##삼
##성
##구
##간
##프
##링
##트
##레
##닝
##밖
##연
##일
##균
##카
##한
##디
##여
##기
##역
##페
##헤
##타
##p
##h
##ó
##n
##팩
##으
##로
##급
##매
##실
##생
##명
##q
##u
##i
##m
##e
##t
##망
##주
##담
##유
##당
##전
##등
##남
##ㆍ
##양
##바
##족
##너
##집
##된
##뿜
##던
##법
##칠
##없
##록
##대
##소
##작
##놨
##빨
##갱
##근
##람
##북
##협
##형
##증
##의
##인
##줄
##말
##임
##충
##잡
##치
##내
##헌
##찍
##며
##덕
##됨
##2
##4
##살
##얼
##🦜
##선
##감
##단
##육
##흙
##됩
##액
##갔
##쓰
##재
##따
##운
##봐
##큼
##품
##예
##식
##물
##코
##쿠
##폰
##쳤
##략
##패
##러
##않
##른
##모
##춘
##특
##별
##위
##겨
##와
##토
##허
##놓
##씨
##발
##미
##술
##창
##튜
##오
##극
##9
##같
##그
##긴
##울
##막
##애
##관
##할
##민
##릇
##각
##징
##경
##w
##l
##를
##변
##잘
##적
##커
##넝
##꼴
##부
##터
##책
##낙
##ㅊ
##히
##통
##렁
##ㅇ
##ㄱ
##될
##듯
##접
##앙
##ㅈ
##ㄴ
##싫
##릅
##쟈
##앞
##분
##빌
##했
##조
##맛
##호
##브
##크
##낸
##새
##우
##봤
##희
##읍
##😬
##입
##송
##a
##c
##권
##밴
##드
##길
##왜
##왔
##취
##맞
##3
##㎡
##혈
##펀
##제
##P
##K
##O
##틀
##맨
##십
##써
##융
##층
##잇
##롸
##린
##붕
##혹
##때
##량
##텐
##션
##엽
##g
##r
##결
##준
##계
##론
##본
##답
##평
##6
##꾼
##짓
##왕
##o
##s
##값
##됐
##죄
##찜
##녜
##땨
##x
##활
##냥
##병
##엔
##컨
##설
##팅
##견
##밥
##난
##뿌
##잔
##싸
##움
##돌
##놈
##날
##딸
##푼
##죽
##갈
##또
##쓸
##턴
##환
##압
##8
##릴
##였
##캠
##핑
##댈
##잭
##늘
##워
##놧
##찰
##총
##테
##🌟
##ッ
##キ
##ー
##납
##b
##표
##현
##직
##굴
##붓
##빼
##백
##투
##메
##편
##햇
##센
##퍼
##항
##😠
##심
##박
##혜
##염
##태
##베
##갖
##았
##강
##ㄹ
##꼬
##큐
##벼
##껄
##먹
##맘
##봉
##빵
##째
##💕
##싶
##빠
##섬
##완
##끄
##럽
##깨
##퇴
##ㅉ
##잠
##달
##롱
##빛
##엇
##례
##참
##루
##목
##촌
##녀
##섭
##초
##종
##댄
##췬
##텔
##릭
##키
##5
##많
##귀
##군
##잖
##댁
##넘
##배
##놀
##텅
##방
##v
##짐
##벌
##벤
##처
##딱
##귄
##냄
##씬
##풍
##꺼
##쏟
##두
##닦
##7
##외
##언
##쪽
##쁜
##멘
##약
##누
##격
##톤
##료
##후
##깐
##앵
##질
##츠
##덤
##딧
##념
##쎄
##쁠
##쇼
##탄
##빈
##넹
##팀
##렌
##번
##B
##C
##괴
##쪄
##V
##쯤
##뜯
##핵
##쏴
##┃
##색
##렀
##낭
##럼
##께
##깉
##겄
##곶
##광
##힘
##황
##뭇
##티
##률
##렴
##추
##및
##엘
##확
##규
##올
##끊
##골
##똥
##곳
##낼
##련
##💦
##꾸
##멍
##앤
##먼
##폭
##걱
##k
##풀
##떠
##밟
##축
##승
##뇨
##옥
##쫓
##돈
##즘
##짜
##켓
##팡
##👍
##🏻
##😘
##썬
##삐
##봄
##얘
##털
##익
##윤
##맴
##😆
##탓
##닐
##켰
##T
##삭
##쿄
##룡
##웟
##쳐
##척
##룰
##j
##렬
##쇅
##퀴
##밀
##곡
##짝
##좌
##뇌
##덜
##롯
##ㅎ
##최
##월
##㏊
##헬
##닥
##썩
##순
##릉
##벽
##봣
##칙
##ｔ
##🍆
##A
##온
##줘
##류
##벅
##숸
##홀
##랜
##손
##욕
##F
##I
##D
##ㅠ
##ㅜ
##닷
##컴
##푸
##열
##껍
##싹
##🇳
##🇨
##🔨
##🖕
##찬
##즁
##졌
##갑
##즈
##혼
##져
##픈
##쌍
##R
##숭
##함
##템
##짱
##G
##곤
##숨
##랴
##H
##E
##＞
##＜
##L
##─
##측
##헛
##젼
##랙
##d
##뭐
##몰
##줫
##셧
##깅
##즐
##웠
##멋
##득
##채
##쟁
##넣
##뻥
##긋
##봇
##쉬
##f
##눌
##얹
##냈
##캐
##슴
##륙
##킹
##농
##싱
##필
##S
##M
##눈
##플
##뺄
##괄
##겝
##받
##홍
##끝
##높
##논
##똑
##왈
##잼
##립
##겹
##뚜
##흐
##W
##김
##슨
##쩌
##혀
##N
##웃
##둬
##름
##웅
##칼
##♥
##️
##ㅅ
##쉽
##킨
##랄
##춰
##럭
##므
##ㅌ
##숙
##빙
##짖
##씩
##뽑
##묵
##땅
##땐
##쩔
##옵
##힙
##튀
##슈
##젙
##홈
##욤
##앉
##랐
##Ⅰ
##뜨
##꽈
##댕
##왓
##슬
##눙
##렐
##겁
##Z
##놯
##졋
##촬
##멜
##픽
##쨋
##줬
##늠
##꿈
##렛
##팟
##걷
##핏
##존
##엄
##녁
##츄
##맙
##ア
##リ
##ト
##ウ
##≫
##첩
##륵
##ㅣ
##묶
##몇
##뭔
##봬
##뀌
##쥐
##섹
##컸
##껀
##꽂
##칭
##혁
##룹
##쇠
##램
##클
##넌
##ㄲ
##→
##잦
##븍
##맹
##톡
##앰
##X
##웨
##뉴
##듀
##택
##겟
##튐
##향
##졸
##펌
##²
##넷
##낄
##랬
##독
##쎠
##U
##툼
##낌
##굵
##좋
##깜
##씌
##철
##솔
##짇
##옌
##잉
##삿
##㎢
##쏜
##촉
##얌
##폐
##콘
##쿵
##뷔
##꼰
##앗
##컹
##댓
##뮤
##케
##몽
##옷
##쿨
##헣
##렇
##찌
##ㄷ
##꼽
##흘
##럿
##궁
##빔
##읽
##힌
##응
##붐
##뎃
##떨
##▶
##훈
##㎝
##춤
##쑨
##뽕
##떻
##у
##з
##а
##떴
##볼
##룩
##둔
##믹
##욬
##꽃
##닼
##○
##뱃
##짬
##콜
##퓨
##깝
##엠
##μ
##맥
##🔴
##뷰
##쏙
##밸
##겅
##땜
##냅
##깽
##웹
##툴
##델
##뢰
##컵
##둥
##냨
##둑
##쇆
##눠
##멸
##뎅
##꺄
##깡
##핱
##셔
##널
##떡
##렉
##y
##찾
##흥
##휴
##밤
##랍
##뒀
##´
##캤
##쑈
##껏
##닠
##녕
##벨
##획
##텍
##㎿
##겐
##쳣
##🌿
##💚
##퓰
##딴
##좃
##룸
##🐾
##긍
##깃
##😪
##옴
##졎
##암
##랩
##효
##뜸
##윗
##얏
##넓
##혐
##팬
##폴
##😊
##묘
##쇄
##옹
##첨
##릿
##탱
##랭
##킷
##₂
##흡
##🙏
##😭
##샤
##J
##됬
##돠
##믄
##둘
##긔
##〓
##셈
##ㅁ
##뤄
##렵
##궤
##😍
##🔊
##퀸
##럴
##눔
##z
##륨
##끠
##튼
##옛
##삥
##듣
##딨
##탐
##낮
##ㅡ
##🥰
##잎
##❣
##쌉
##엿
##꿔
##핼
##뼈
##넨
##뒤
##쁘
##큰
##놔
##찐
##떼
##빤
##좝
##덟
##셰
##☺
##뭘
##젠
##댔
##쌓
##뇬
##뒹
##셋
##났
##윈
##녹
##틴
##숩
##🤮
##🤣
##셐
##콧
##낫
##젤
##닮
##＝
##ᆞ
##풋
##덱
##흔
##뻔
##롭
##뚱
##뺏
##쏠
##👏
##몬
##끗
##쌀
##횔
##윳
##덥
##뜻
##칸
##펙
##돤
##샏
##ㅂ
##겪
##콩
##잌
##밭
##얻
##휘
##햄
##낀
##탁
##씀
##끌
##혔
##쉐
##앜
##킬
##첫
##룬
##볍
##틸
##띠
##싀
##붙
##덩
##텀
##됏
##롤
##횟
##냇
##끈
##봅
##쒸
##😎
##꼇
##💸
##홧
##빚
##컷
##쌈
##헉
##흑
##퍽
##짭
##찹
##궈
##💙
##겸
##깔
##뭉
##😳
##쉼
##웍
##톱
##벳
##걍
##겈
##켄
##😥
##쟎
##닉
##밑
##돕
##덴
##겼
##쩡
##떤
##굿
##😵
##맣
##갓
##꽁
##벗
##맠
##㎞
##랖
##밍
##Q
##👻
##셀
##돋
##궃
##꼼
##갰
##뿔
##🐴
##팜
##횡
##깰
##곰
##슷
##밋
##짠
##됀
##듬
##닿
##쒜
##욀
##깤
##ㅍ
##캘
##💌
##킈
##쁩
##콤
##칩
##곗
##륜
##㎜
##슙
##맡
##싼
##몀
##갤
##줌
##뛰
##몈
##펠
##샌
##킥
##챙
##겻
##샊
##렙
##짤
##곽
##멀
##륭
##뱅
##줍
##맀
##끔
##켐
##늙
##쉑
##Y
##쩝
##ㅗ
##펜
##숲
##샘
##핸
##낳
##😑
##캬
##빅
##괘
##촛
##빰
##켔
##퉁
##떄
##챡
##툰
##솟
##н
##и
##м
##섀
##🙆
##♀
##컬
##댱
##🙋
##뚫
##옐
##챤
##🌈
##겜
##쟝
##쑵
##틱
##땝
##샷
##욘
##듭
##🙄
##탑
##찔
##뚝
##즌
##힐
##닫
##│
##랫
##훼
##흉
##랰
##킴
##덮
##헝
##～
##넵
##밷
##찼
##삽
##섞
##💛
##👶
##삶
##텃
##넴
##훌
##슉
##펩
##팝
##늄
##ᴬ
##ᴼ
##젝
##딜
##👫
##❤
##냉
##잽
##핀
##쥬
##샵
##읏
##얗
##퉤
##썼
##눕
##엉
##슘
##뎈
##쾌
##믈
##헷
##😝
##늦
##꿉
##×
##빡
##엑
##벙
##캅
##엎
##🍌
##🌸
##⭐
##뵈
##꼭
##볶
##✨
##🍋
##🔥
##짘
##굣
##펑
##냔
##㎥
##괸
##긁
##몸
##툽
##쏘
##쌤
##갉
##늉
##둠
##넬
##↑
##숫
##탠
##딘
##잋
##벚
##뽀
##졍
##껴
##캔
##곸
##톰
##셉
##빕
##팸
##듷
##✌
##😏
##젓
##딥
##땡
##쩍
##롬
##냬
##닙
##ン
##ド
##ブ
##ク
##밬
##쁨
##🧡
##숍
##😤
##꿏
##🇵
##＋
##욯
##렘
##폼
##욱
##쌰
##쫌
##꺠
##뮨
##뮈
##˚
##왼
##얀
##펼
##꼈
##찮
##셜
##😂
##늬
##쿤
##뻐
##샬
##쓴
##㈜
##곧
##넜
##🏿
##👩
##딛
##뒷
##씹
##쨍
##ㅏ
##껭
##뒈
##닺
##걘
##퀘
##듈
##뜩
##갸
##첸
##쌖
##😇
##ㅆ
##즙
##😃
##넉
##👹
##팥
##굉
##븐
##뉸
##샐
##탤
##떵
##풂
##랔
##컥
##흠
##🧚
##뻑
##칮
##엌
##갇
##걑
##걀
##욜
##꿍
##삘
##읎
##꿀
##뉘
##냠
##낑
##뵤
##즤
##륄
##밈
##넥
##윌
##😚
##🙂
##🤗
##😀
##😁
##😗
##😅
##헙
##쨌
##걔
##끓
##빽
##찡
##솝
##홓
##팁
##솜
##궐
##멩
##땀
##앓
##🤩
##듦
##빋
##슐
##쿼
##솨
##랏
##뤘
##튿
##귝
##뎨
##돔
##🦶
##✋
##콴
##썅
##넸
##젔
##옳
##뻤
##뱀
##잤
##😱
##é
##윙
##줭
##됴
##훔
##헀
##팍
##겔
##팽
##쌔
##샠
##햐
##첼
##죵
##숯
##룽
##깍
##뤼
##솥
##섯
##뭣
##얔
##빻
##샛
##캣
##쪼
##뫃
##잊
##햔
##뇸
##밌
##쯔
##㎾
##쟙
##옺
##😡
##🐔
##♡
##핍
##ㅃ
##뻘
##🇰
##셩
##팰
##톨
##딪
##Ⅱ
##🥳
##띤
##룔
##쾅
##●
##핥
##넼
##뵨
##е
##в
##о
##л
##ю
##ц
##괜
##큅
##젬
##콕
##웰
##⚠
##밝
##췌
##칫
##믿
##β
##켈
##멤
##앱
##젱
##슥
##뺨
##뽐
##뤠
##♂
##넛
##츨
##됫
##쭉
##잨
##㊗
##핫
##샀
##쩨
##겉
##💞
##펫
##셤
##💘
##💫
##띵
##멎
##킼
##꺽
##🐕
##룻
##펴
##곘
##퓌
##👀
##멧
##늑
##á
##좆
##섴
##ч
##г
##갛
##잣
##롴
##🙊
##셍
##붸
##챔
##똘
##🤔
##깻
##ち
##マ
##シ
##カ
##🐖
##쭈
##๑
##탔
##빗
##훨
##졔
##씸
##릎
##묻
##캡
##샹
##뫄
##옮
##🐷
##읹
##갠
##ㅔ
##맵
##튬
##킵
##듐
##쑤
##눅
##쮸
##쐈
##괼
##짚
##댐
##벋
##😉
##🌻
##엥
##꿇
##쩟
##㎏
##혓
##욧
##뺃
##윽
##↘
##쪙
##뺌
##쌕
##낍
##💖
##븅
##뎌
##😨
##😈
##헐
##쉭
##낏
##р
##т
##с
##꿘
##🍅
##ā
##횃
##잃
##👎
##퀄
##짛
##먕
##즉
##헴
##뜬
##맬
##❄
##뚤
##닞
##👉
##쮜
##갚
##맷
##귿
##😔
##읻
##🎶
##슛
##텨
##얍
##➡
##꾹
##★
##△
##툭
##꽉
##◆
##쩜
##꿨
##🍒
##🍑
##맏
##벵
##볕
##λ
##몫
##쿰
##곱
##☀
##뷸
##💜
##🚗
##뎄
##🍖
##🍲
##뢔
##봘
##앨
##쎈
##휼
##칬
##얄
##졓
##둿
##푹
##씻
##퐐
##쩐
##뀔
##녔
##쉴
##⋅
##맸
##됌
##짆
##🍃
##🌱
##슝
##멱
##🎀
##÷
##턱
##🖐
##📚
##🔶
##멈
##췄
##숴
##쟌
##쿡
##헨
##웩
##쉰
##퓸
##갘
##🏼
##멉
##쫄
##쭘
##▼
##잏
##빱
##펍
##밧
##🐈
##셴
##🐶
##찝
##ᄃ
##ᅡ
##댘
##쭌
##탭
##싳
##밉
##🤬
##햘
##㏄
##쑥
##븀
##훙
##∙
##뺠
##젖
##좇
##쳑
##ㅓ
##웬
##벡
##핰
##④
##👧
##👦
##깎
##헿
##😩
##튄
##🔞
##젯
##낯
##찢
##뀐
##햑
##썹
##섰
##펄
##ᆡ
##ᄒ
##쌩
##떳
##훗
##긕
##끙
##잗
##횐
##섕
##🌝
##샴
##듁
##챌
##쫑
##푠
##쭙
##씰
##🚀
##💥
##튕
##💓
##😙
##쉔
##짧
##텝
##쳬
##렷
##랠
##젊
##틈
##봥
##❗
##펐
##🤪
##🎊
##픔
##⛔
##낚
##웜
##꽥
##낰
##💃
##🍊
##붉
##℃
##찿
##깥
##쬐
##쥔
##햅
##ä
##뻬
##샥
##뺀
##갯
##💪
##🥢
##깟
##씅
##쵸
##띨
##댜
##탉
##숟
##뎀
##띄
##±
##イ
##줏
##굽
##헹
##뇰
##휠
##얺
##깊
##🇷
##숑
##🤭
##챠
##❓
##됄
##뀝
##곁
##괭
##듸
##덧
##쥰
##읗
##놋
##딕
##썰
##😐
##횽
##썻
##펨
##햤
##쉨
##핮
##▲
##돟
##톳
##굶
##앖
##빳
##к
##п
##ш
##｜
##🍫
##🍰
##닛
##읜
##댸
##ℓ
##🐰
##딤
##솎
##캉
##믓
##뼉
##💤
##엣
##둣
##굳
##😮
##뱉
##졷
##📸
##깼
##읃
##켁
##🐦
##뻣
##릐
##🐥
##👊
##묭
##↓
##🐵
##か
##と
##😜
##🍻
##욥
##꽝
##켕
##쵝
##뵌
##싣
##™
##😛
##됭
##훅
##쫏
##퐁
##땟
##늧
##꙼
##̈
##듵
##섁
##😞
##쉘
##뵹
##횬
##깁
##쳥
##♬
##ㅛ
##흰
##촟
##볘
##숀
##핟
##댠
##ㅤ
##à
##힝
##퀼
##겤
##🥶
##앝
##챵
##꿩
##쨩
##밎
##씁
##💝
##짴
##겡
##햬
##앟
##젹
##윷
##☝
##뽤
##㎉
##낟
##죸
##싯
##◀
##슌
##я
##옼
##눗
##맟
##꿋
##☔
##め
##れ
##🚴
##🐒
##🐗
##몄
##®
##ㄸ
##🇯
##쭤
##쌋
##븡
##뎐
##👈
##휩
##í
##껑
##굼
##냘
##땔
##쑹
##꿰
##캄
##💗
##🎈
##쫘
##탬
##멊
##겆
##쥭
##홉
##귈
##좔
##캍
##ᴱ
##쥥
##꼐
##칵
##훠
##랼
##🌶
##🔪
##먀
##뷴
##곯
##☞
##👋
##핳
##옄
##뎁
##갗
##뫼
##촹
##궄
##쓉
##닳
##Ⅲ
##🍎
##⑶
##졀
##샙
##춧
##헸
##늣
##쨔
##땍
##🐎
##😢
##う
##い
##こ
##🙌
##👆
##렝
##✈
##녓
##뺐
##뢀
##➰
##る
##も
##の
##뽁
##켯
##쫙
##셱
##볌
##썽
##맑
##찻
##☁
##잰
##엏
##좡
##츼
##궜
##⚡
##쭛
##뀜
##🖤
##뻗
##츤
##썸
##🍁
##챦
##앴
##첵
##똔
##듕
##숄
##롄
##д
##펭
##뱌
##갼
##겋
##🙈
##☄
##셌
##옿
##💍
##👴
##☕
##껐
##껌
##춥
##퀵
##냑
##곀
##㎎
##😲
##퍈
##➖
##엮
##풉
##🎄
##붇
##떰
##뜰
##겍
##쌌
##쫒
##뿍
##귓
##쏭
##퍠
##돗
##솽
##츙
##놉
##죗
##볗
##꿧
##붑
##꼿
##퀀
##❌
##얐
##텋
##쪕
##🦐
##ы
##🍀
##샜
##엾
##맺
##몃
##텡
##α
##뮬
##밪
##폄
##싨
##🍔
##뿅
##😄
##ㅐ
##쥘
##괌
##🦀
##뛴
##삔
##녠
##⠀
##💩
##웡
##쫩
##뭏
##섣
##て
##캇
##😋
##끽
##ö
##쀼
##땃
##콰
##읇
##촐
##뽄
##뽝
##믜
##쭐
##🕊
##촨
##샨
##ㅕ
##ㄳ
##🍺
##ｇ
##㎖
##츰
##🎉
##💐
##🍾
##쥣
##쪹
##🌲
##³
##뗌
##왠
##🍟
##랗
##뚠
##첬
##톈
##📣
##🔵
##몹
##팻
##낡
##짢
##뼝
##꽤
##빴
##홋
##헥
##밨
##쎅
##쯩
##🇹
##🇭
##쒀
##싢
##쑬
##깠
##깈
##쟛
##🐤
##꾀
##곬
##🚩
##짼
##듄
##쒝
##㈎
##좁
##씽
##쳇
##뿡
##캥
##샣
##◈
##🎗
##깄
##먄
##휜
##롹
##왤
##큘
##둡
##읶
##ん
##΄
##😴
##뱄
##셸
##핧
##엤
##🤦
##쯥
##긑
##😻
##찟
##🍴
##뗄
##ᄅ
##ᆯ
##😌
##퉈
##㎸
##켠
##팠
##옻
##넙
##🍓
##😣
##렿
##앍
##🍗
##🙅
##㎐
##켤
##🏃
##🍂
##쟤
##짰
##🍼
##겧
##짹
##₁
##👣
##뭡
##⅔
##😓
##🍽
##딲
##🤐
##☠
##힛
##앳
##몾
##읔
##💧
##믐
##✔
##랃
##줴
##뭍
##핡
##📽
##낵
##갬
##솤
##🎁
##🌙
##🍉
##퇘
##쉿
##귤
##윕
##눼
##뇽
##쎼
##쐐
##👨
##럄
##썪
##긱
##늪
##삯
##좦
##뮐
##녘
##あ
##は
##갲
##💢
##셕
##숵
##돛
##몐
##👄
##밣
##덯
##읺
##몆
##🤓
##🧐
##쥑
##푀
##🐽
##쉒
##쓱
##🌋
##쥤
##콥
##뺑
##쥼
##❛
##ᴗ
##②
##π
##죹
##뗏
##🐀
##옇
##🍤
##넋
##츌
##탸
##🌛
##햏
##촵
##싄
##뉼
##둉
##ᄂ
##ᄋ
##ᅵ
##틔
##💁
##깢
##믁
##핬
##쌨
##굥
##뭄
##켸
##🌷
##た
##㉢
##뎡
##に
##り
##ま
##📌
##쥴
##삑
##ジ
##ス
##🐱
##봨
##껜
##쉥
##🎬
##쾡
##😫
##く
##㎍
##😰
##룐
##≪
##쨉
##☆
##칀
##쬬
##₩
##헠
##꾜
##🤘
##잫
##뭬
##팃
##좉
##왑
##븨
##👌
##깬
##럐
##돚
##뷩
##🏊
##뺴
##흫
##🎸
##딹
##쎔
##🥖
##°
##캑
##◇
##쭝
##앋
##냣
##й
##👅
##□
##ᴜ
##ᴛ
##눞
##띁
##뗀
##🌴
##읁
##🏠
##き
##🕺
##얶
##👿
##😯
##🇼
##↔
##좍
##👤
##촤
##켬
##🥗
##🍷
##줗
##σ
##묜
##섺
##앂
##뵙
##︎
##윅
##🐙
##휭
##쿱
##닽
##🎤
##🤯
##🍜
##챱
##쇗
##٩
##㎘
##퍄
##읊
##🍝
##🙇
##🐟
##즹
##ㅑ
##땠
##쉣
##🌼
##폿
##🎵
##엊
##쓔
##싰
##릏
##🐮
##🐂
##🔖
##㎠
##텬
##샋
##챈
##🤤
##촙
##긿
##🚨
##떙
##쫍
##햌
##뉨
##챗
##칡
##☎
##킁
##🐍
##̄
##̆
##̎
##짔
##퐉
##왝
##짯
##놐
##🤧
##깞
##킅
##얕
##ら
##さ
##🍪
##븥
##팎
##💨
##샅
##죈
##폈
##멨
##흴
##탯
##읭
##줒
##샆
##잆
##삣
##Ⅹ
##Ⅵ
##옭
##쟉
##핌
##싴
##짗
##🐸
##앚
##눴
##튈
##お
##ü
##멓
##픕
##녤
##🍚
##탰
##텁
##죙
##윘
##촘
##쇤
##똬
##🇸
##죡
##왁
##톄
##🦍
##🌊
##😕
##🤨
##😶
##な
##っ
##낱
##푯
##끅
##돨
##웂
##쳔
##뛸
##😖
##뱍
##ㅖ
##プ
##ラ
##テ
##ィ
##で
##눟
##뮌
##멕
##х
##퍅
##윰
##щ
##뱔
##🍞
##🥐
##🍳
##🍣
##б
##ж
##팹
##🌳
##늗
##🤟
##엡
##̊
##벹
##훽
##떔
##쫀
##😷
##쯧
##⁴
##쨰
##틑
##🤫
##뎠
##뗴
##젛
##💄
##を
##좄
##즛
##헵
##쾨
##썌
##늕
##엨
##쒼
##뿟
##랸
##뼛
##✊
##コ
##❸
##씝
##💎
##꺵
##㎛
##귐
##볜
##🐩
##👺
##☘
##힣
##🧀
##🥄
##뜽
##♣
##꺾
##し
##덫
##🥑
##끋
##뜀
##🔸
##꿜
##뗑
##갂
##🔫
##ا
##쪈
##닜
##🍵
##🎂
##굔
##뤡
##㏈
##▣
##ㅄ
##욌
##룟
##틋
##🐓
##🌺
##앎
##즨
##죤
##휙
##쟨
##🍦
##뱐
##젭
##잴
##⑨
##🤷
##텟
##뙈
##닏
##읕
##💀
##큭
##쏵
##훤
##쳉
##켱
##칰
##⃣
##｀
##🔜
##륀
##훑
##←
##＾
##댑
##맜
##녈
##힉
##⅓
##⑤
##🐯
##땋
##ෆ
##🍯
##レ
##☢
##ロ
##ケ
##옶
##퐈
##🌹
##컫
##🎃
##넒
##걩
##씼
##و
##🦅
##뮴
##왱
##뱡
##쐬
##뗘
##촞
##ç
##뀨
##옘
##뗐
##궂
##🍏
##뻡
##짙
##쎌
##🤢
##ᆫ
##🥕
##꿎
##돝
##땁
##붘
##■
##튤
##🚫
##뜾
##맄
##묹
##먈
##쎀
##💋
##볐
##💟
##멥
##숱
##㎒
##⭕
##🌞
##좨
##ь
##갭
##콱
##쫗
##윔
##🥊
##🐑
##땄
##쪘
##ェ
##ル
##⑴
##뜷
##뵐
##짒
##톼
##📍
##뢴
##è
##촣
##큽
##훕
##윾
##쏩
##곪
##벧
##ʕ
##놰
##⑥
##궹
##얇
##け
##◎
##🥇
##♩
##す
##몪
##ᄉ
##🙃
##🥺
##먐
##웻
##츈
##뼘
##🖒
##틍
##랒
##싷
##ι
##붤
##셑
##쐇
##롼
##벞
##죴
##흩
##ニ
##💰
##닢
##벱
##핝
##웤
##얽
##몌
##췃
##욋
##틉
##챘
##뎬
##쌘
##퉷
##밞
##뽈
##🥛
##줜
##🍕
##춴
##🔹
##퇄
##솅
##🇺
##🕯
##👼
##쐑
##😧
##が
##끕
##괞
##🌚
##バ
##슼
##🐻
##읿
##줮
##💣
##옙
##죧
##줠
##셓
##죌
##퐝
##쿸
##씐
##ο
##럈
##먜
##믕
##죳
##뙤
##쳄
##뢸
##뽜
##ɪ
##꺅
##ㄺ
##뤈
##쟀
##み
##ぬ
##∥
##🎅
##🍇
##숏
##🙉
##🏽
##툥
##슭
##벰
##쨈
##졘
##쏨
##늫
##춍
##겊
##믽
##섶
##띈
##휀
##ʟ
##🤑
##뷜
##̴
##̶
##̷
##̀
##띔
##샾
##챕
##👯
##📝
##붜
##🐭
##ː
##🙀
##껫
##뜹
##뙨
##쏱
##괵
##잍
##뽂
##И
##닯
##됍
##싑
##📷
##궉
##짊
##컾
##◞
##˂
##̵
##✧
##👭
##맇
##띱
##タ
##㎓
##③
##뇐
##텼
##셥
##よ
##왹
##텄
##뉩
##잿
##옜
##쨘
##튭
##뻴
##¹
##웽
##ᴏ
##ᴇ
##ε
##ω
##㎚
##깩
##♪
##왐
##🎧
##뤽
##쭵
##쪾
##밢
##🍠
##⇒
##▽
##わ
##갹
##🍭
##볏
##륌
##💡
##쏼
##렜
##컄
##ᴀ
##♦
##떫
##💯
##쑴
##🍩
##ム
##グ
##큉
##👽
##ᄏ
##つ
##렠
##쾰
##뤌
##똭
##😟
##깆
##얜
##귁
##뾰
##К
##А
##▷
##믾
##ᄀ
##떽
##뭥
##🏾
##̑
##왘
##찧
##띡
##좈
##쉈
##①
##챨
##＄
##욍
##핣
##쯕
##🐣
##숼
##줙
##🍡
##좟
##퉜
##빢
##솰
##🛑
##홥
##굻
##뺘
##ф
##닶
##볓
##샇
##팼
##툇
##ㅢ
##펏
##슁
##͈
##￦
##ノ
##✂
##맗
##삻
##묀
##긷
##뚯
##쉅
##쒞
##だ
##욹
##😒
##숌
##쟐
##В
##П
##Р
##💳
##✍
##홰
##⑦
##フ
##♠
##Ⅳ
##잪
##뵀
##🗡
##👑
##♨
##쎘
##☹
##쇽
##뵜
##돜
##젇
##튠
##뷱
##🤡
##ギ
##슾
##딫
##뛔
##닻
##읖
##쿳
##홱
##ɴ
##ポ
##뉜
##チ
##😽
##킄
##롷
##👇
##メ
##∧
##죨
##쇳
##꽐
##멏
##˘
##캭
##뮛
##뭤
##꽹
##뭅
##윱
##똣
##촥
##옅
##꽌
##💬
##💑
##▪
##떈
##∑
##🌽
##👥
##ᵀ
##ゃ
##솓
##🎆
##🌜
##묫
##━
##◡
##̩
##📢
##햝
##🐅
##젋
##˝
##ダ
##끍
##삵
##ミ
##쬭
##🦁
##뺍
##찣
##뱁
##쫭
##🔔
##흣
##⑧
##⑩
##ღ
##❎
##샡
##そ
##콸
##룀
##➋
##켑
##홑
##Д
##쏫
##덖
##톺
##떱
##✳
##👟
##튓
##찎
##몯
##싈
##봊
##㈏
##큿
##え
##묄
##깸
##첮
##⑷
##뉠
##✅
##짦
##곈
##ヒ
##쯪
##빩
##̫
##츳
##띌
##▫
##̣
##⑫
##⑬
##섦
##˙
##떢
##딍
##🗣
##쌂
##́
##꼍
##퇫
##🌩
##ⓓ
##휑
##븽
##죷
##М
##˃
##딋
##붱
##📖
##㉯
##🔺
##꾐
##뵘
##Ⅴ
##웸
##⊙
##◐
##쐴
##✿
##흄
##엷
##⑵
##⒝
##➊
##꿴
##∠
##С
##┬
##뜁
##휨
##죕
##🐁
##͡
##묽
##꾿
##̥
##뻇
##⒜
##묏
##좥
##⫬
##ᴥ
##㈔
##⒞
##⑭
##ソ
##퉸
##𖤐
##퀭
##똠
##↙
##㉠
##Δ
##㎗
##㉰
##뙇
##쾈
##㉱
##ⓐ
##⑪
##㈑
##☏
##ⅱ
##㈐
##ⓒ
##㉤
##㉮
##❶
##❷
##ʔ
##ⓑ
##ⅰ
##㉡
##▨
##쬔
##⑸
##㉣
##띕
##☑
##∘
##으로
##에서
##하는
##했다
##이다
##하고
있다
##니다
##들이
있는
##었다
##00
##지만
##한다
##라고
사람
##에게
##까지
##들은
##다는
##면서
아니
##는데
우리
##하게
##다고
##적인
대한
##부터
한국
##적으로
##에는
20
국민
##라는
지난
생각
##해서
##ㅋㅋ
하는
##습니다
것이
##하지
그러
##리고
##들의
##통령
한다
##하기
때문
##하다
일본
중국
대통령
##이나
##았다
이런
것이다
##대로
문제
것으로
##하면
지금
정부
##렇게
같은
미국
##니까
##보다
##으면
위해
했다
10
ㅋㅋ
말했다
들어
##들을
##해야
그런
##리는
##기를
##였다
나라
문재
하고
201
서울
##자는
##라도
##에도
##지는
북한
##하여
19
것은
하나
자신
다른
##된다
경우
##이고
만들
##리를
##장은
이상
그래
##되는
##처럼
이번
정치
##사를
통해
경제
##지고
없다
아이
##자가
사실
없는
있어
이제
따라
함께
##에서는
사회
##주의
지역
필요
대표
그리고
##혔다
##도록
##장을
민주
때문에
시작
##나라
진짜
##인이
200
##겠다
관계
가능
세계
##기에
##입니다
##세요
##장이
밝혔다
국가
하지만
가장
그는
모두
##으며
아니라
##졌다
기업
##인데
##됐다
이어
##기가
대해
##기도
관련
##지를
이라고
인간
##리가
있었다
##하며
위한
##가는
정도
것을
##는다
다시
##성이
문재인
너무
많은
##원이
상황
그러나
##들에게
사업
##이는
##위원
아닌
##하면서
##성을
##기는
많이
##이라
시간
##거나
검찰
이후
##력을
모든
그냥
##사가
등을
##이지
보고
사용
##회의
##이었다
##원을
##어서
된다
이렇게
모르
##사는
어떻
지난해
아무
조국
정말
##어요
있을
교육
##구나
국내
##이라고
정신
현재
##민국
이날
이유
12
##정을
##려고
어떻게
##한테
다음
##네요
어떤
##되고
ㅋㅋㅋ
있었
결과
이미
특히
##기업
진행
##원은
11
30
마음
##합니다
내가
나는
이용
##화를
그렇
##000
대한민국
최근
##지도
프로
지원
##상을
경찰
돌아
아직
##인가
사이
자유
그렇게
나오
올해
후보
하지
##로운
##어야
##시키
##자의
##같은
그것
##자를
자기
중요
##스트
얼마
##들도
##다가
좋은
무슨
민주당
##어나
##0년
##이가
받아
##렸다
계속
바로
계획
##들과
사건
##주는
설명
사람이
##으니
되는
모습
피해
그래서
##해라
15
##지가
조사
##이라는
##에서도
않고
처음
라고
있다는
수준
##만원
연구
##시아
이야
삼성
##그램
최고
전문
당시
학생
##시간
정권
지지
역시
##정부
내용
해야
다양
조선
##했던
##르면
나타
여러
시장
보면
당신
어디
기록
##비스
18
운영
예정
이해
이러
##수가
대학
##서는
때문이다
##명이
않는
대상
좋아
##기로
투자
##인지
정책
않은
만들어
언론
##력이
이를
##레기
선거
##대가
100
떨어
##운데
살아
찾아
보여
##는거
##식을
개발
##리에
기술
대구
자신의
##사람
수도
##잖아
동안
##없이
없이
경기
오늘
##인의
##사의
잘못
여성
##가지
의미
알려
##인다
결정
어려
##는지
직접
##머니
발생
관심
가족
##동을
##회를
이게
결국
우리나라
문화
어느
또한
##억원
있고
청와
##수는
책임
아니다
##사업
주장
##치는
##왔다
발표
시민
이라
학교
##소리
댓글
##정은
참여
##보고
확인
##학교
##대를
사랑
일부
##들아
평가
이에
않았다
같이
국제
물론
제공
여기
새로운
일반
따르면
다양한
말이
추진
전국
영화
의원
##되어
인정
##드는
방송
##났다
##있는
금융
##동안
현대
가운데
관계자는
##의를
##씨는
##도를
##명을
##근혜
##치를
##레이
##상이
앞으로
하면
세금
##위를
것도
##시는
제대로
그런데
##인은
##아서
##시장
##하겠
요구
않았
그럼
정보
준비
##제로
공개
##이었
##체가
그의
국회
사고
감독
기자
##더니
등의
##전에
수사
제품
##스로
얼마나
##거리
부산
##으나
그만
이름
있다고
알고
##진다
이것
##부는
지적
먼저
##밖에
##스타
청와대
기대
마련
##스크
방법
포함
장관
외국
##했다고
여자
13
##수를
##OO
25
##려는
인터
누가
기준
##했고
저런
박근혜
판매
정상
부분
##점을
가지
최대
얼굴
오후
##교육
50
현실
##부분
##해서는
등이
성공
##없는
##랜드
16
무엇
##인을
해외
상태
가격
전체
경쟁
##하자
판단
있는데
분석
##정이
생산
##마다
##해도
기사
아주
##대표
##놓고
나온
하루
##어도
해결
##도가
##전을
##이냐
열린
##위원회
##은행
개인
지나
##도로
##제를
환경
문재앙
##한다고
14
미래
지방
강조
한편
말을
사진
일이
더욱
영향
##주고
##르는
##안을
있습니다
생활
드러
누구
서비스
중심
증가
근데
##지역
선수
가지고
##당이
받고
내려
##자로
##리아
##치고
##되지
##시에
사람들이
않을
언제
##금을
산업
##하는데
##센터
그녀
##장의
##아야
부모
우리가
같다
노동
##러운
##라이
반대
##하네
좌파
한번
소비
##시켜
##자들이
있도록
그리
##장에서
##한다는
만나
##원의
주민
##이야
없었다
구성
17
어린
##하나
##겠지
라는
높은
##리지
규모
보내
##기관
##음을
##스럽
전망
완전
자한
공동
역사
대부분
##정한
고객
##다면
또는
##명의
없어
대통령이
존재
##선을
만큼
이라며
올라
됐다
##식이
##스는
친구
보인다
##장에
##들어
효과
소리
안전
건강
선택
##마트
제발
조금
추가
##이트
내년
##이며
##스를
해당
##시다
##5년
이러한
##파트
특별
과정
##부를
역할
##하던
##권을
않는다
##개월
예상
##같이
##거지
쓰레기
자연
##말고
빨갱
크게
오는
주요
방문
비판
못한
##자들
얘기
세상
관리
##물을
문제가
강화
##경제
유지
확대
활동
##동차
우리는
서로
##단체
정부가
##것도
##럼프
기존
활용
해도
과거
도시
중요한
적용
##이네
OOO
##문에
정의
보수
##산업
40
##이를
아니고
##세를
회사
##이면
합니다
경험
에서
이는
##하냐
##당은
받은
비롯
스스로
##가가
##었던
상대
##므로
트럼프
##연구
만든
프로그램
##되면
작품
해서
인천
예정이다
##계를
##로나
##감을
당연
##2년
거짓
기본
인사
사람은
##조사
##대에
##8년
의견
자리
##정권
도움
##스템
외교
성장
##료를
아버
199
적극
##민주
말고
##운동
표현
##7년
##4년
광주
그게
넘어
국회의
##보는
##보면
요즘
##문을
구조
##서를
더불
##원에
나가
##과의
주변
설치
기간
21
범죄
##화가
##르고
##6년
경영
나서
##부가
##중에
노력
분야
있지만
##더라도
갖고
이루
수출
##하라
고려
##사회
국민의
공산
조직
##가를
지속
한다는
등에
##3년
##지지
사람들
공무
거의
24
전쟁
##대는
##느냐
배우
이야기
##자인
오전
앞서
##지로
##갔다
세월
우선
일을
구속
##더라
마지
##스가
##이란
##했지만
여행
발전
신천
위원
여론
##지에
##자리
##을까
상승
##나는
아닌가
결혼
##어난
##동산
아파트
##냈다
##야지
절대
관광
어렵
그때
부담
##업체
대비
##시설
##거다
참석
##이라도
남자
설명했다
비교
##시고
되어
친일
중앙
집중
엄마
##하였다
상품
##려면
탄핵
운동
없고
##도는
되고
상당
아직도
목표
스타
필요한
공격
국정
업무
건설
이건
##가고
##로부터
##적이
그동안
빨리
마지막
##린다
##대의
힘들
우려
위험
유럽
##나요
##다니
##ㅋㅋㅋㅋ
##히려
##위에
##식으로
##로는
나와
##겠다는
##이스
자한당
##문화
예산
##9년
이뤄
더불어
기억
대통령은
전략
보다
ㅎㅎ
오히려
면서
22
못하고
출신
##대한
불법
교수
아베
개선
##가서
빨갱이
보도
##내는
조작
감사
##에선
부족
분명
의료
행동
##그룹
##업을
대신
두고
있던
미친
1년
##임을
##원에서
제1
마스크
혐의
바람
각각
##1년
나라가
지난달
정부는
##국민
##으면서
확보
##정에
않아
부동산
##장관
코로나
##되었다
##개발
사는
##er
으로
지켜
행사
보는
알아
대응
23
ㅉㅉ
##씨가
하는데
롯데
김정은
이거
##하니
발견
##도의
##정책
평균
그대로
##오는
##자들은
젊은
거래
시즌
가까
글로
직원
지도
총선
기다
##트를
재판
##라면
##장과
##소를
실시
##했는데
제주
시행
매우
의혹
만에
##랐다
##드시
자체
##하기로
기능
##거든
관한
##관리
##하다고
##기술
사라
##쳤다
##하겠다
전혀
##했다는
##하지만
##관계
그가
부정
제가
##라인
##하다는
##물이
##으로써
##일부터
전에
영국
가는
따른
분위
##보다는
인터넷
##두고
그래도
움직
계획이다
##회가
##디어
##시민
##하거나
행복
핵심
충분
차지
보호
##약을
치료
하여
##었고
공급
##기고
개혁
선동
않다
있으며
되었다
정도로
따라서
있게
가능성이
전문가
제기
##제가
등으로
자동차
##봐라
가진
모습을
##치가
못하는
27
##일이
##해주
##생활
LG
사실을
##일까지
위해서
반면
##른다
대선
주는
도입
걱정
의원은
4월
##학생
엄청
말씀
##성과
있지
전했다
스마트
26
많다
##개를
통합
변호
대상으로
##수록
아니면
보니
매출
다니
세월호
##이에
##스의
먹고
##상의
##로서
중소
글로벌
사과
제시
##구를
##비를
##지원
2년
##림픽
28
수가
국민들
##조건
다르
니가
##일을
##누리
##이기
이와
반드시
있기
집단
사람들은
작은
받을
생각이
##구만
돈을
##장으로
6월
바라
##on
선정
##내고
##들에
업체
##와의
가져
합의
안보
##거야
##일보
일단
##있다
조성
있어서
##지의
이라는
브랜드
##하도록
남북
선생
정당
##사에
##만이
은행
##우는
신청
논란
청년
행정
##원으로
나도
논의
정확
##었는데
수익
대해서
##자들의
실제
인생
##성은
제작
순간
지급
하면서
##도시
3월
변화
불가
##선거
증거
문제를
##회는
처벌
대체
자신이
달라
##만큼
##돼지
달리
5월
공공
국민이
##분이
사무
평화
##이어
##했을
되면
러시아
역할을
받는
##기의
공간
받았다
최소
##심을
때는
사망
##위는
##이터
##아요
번째
##마라
다만
##구요
대책
강조했다
신고
공연
##달러
3년
확실
##프로
어머니
SK
희망
##새끼
프랑
한다고
느낌
대표는
60
##아니
차량
정부의
시스템
##자와
각종
영향을
##움을
공부
수입
투표
##환경
머리
남편
이전
독일
아니냐
니들
오래
밝혀
검사
아마
개최
음악
##심히
새끼
##구가
맞는
##없다
##실을
쉽게
가서
모르는
보험
##이니
##어진
##개혁
게임
저는
##정도
고민
수밖에
이동
주택
##자기
##먹고
##부의
신천지
##수의
아무리
영업
##in
9월
과학
싶은
##이지만
##이랑
##겠네
##정보
기관
##00만
제2
혼자
##위가
##받고
대단
처리
여전
공무원
최초
29
신경
바이
대형
대깨
뭐가
##보니
참가
##드를
비슷
해라
7월
##회에
##인들
##하는거
소속
성과
##부에
전통
##리의
발언
##롭게
##인들이
과정에서
되지
공식
어려운
독립
들어가
##이자
한심
좌빨
##an
고용
##겠습니다
##회에서
##겠지만
새누리
어쩌
##너지
##님이
권력
종교
##단을
##성에
##사와
비용
##한거
검토
시절
##율이
동시에
경기도
##간다
##으로는
자식
사회적
##겠다고
10월
##란다
##세계
못했다
광고
전부
지금까지
##리그
소득
##아가
##소년
라며
##개의
##적을
노래
##하기도
##습니까
나라를
그걸
유명
없을
전달
놓고
가짜
장기
단체
사기
##안이
##섰다
불과
연결
##전자
구체
비해
지키
없다는
대통령의
##대체
무능
알려졌다
##겼다
강력
선보
사례
주고
대깨문
열심히
##으로서
심각
##국의
##하였
##포츠
제일
단순
느끼
##하시
대출
12월
사태
법무
안타
##점이
파악
방향
생각을
8월
##차를
##시키는
국방
강남
주목
국민들이
##리면
위치
요청
어찌
소개
주식
선발
##보험
##텐데
198
1월
##기사
끌어
하늘
재앙
##예요
아시아
그림
항상
공정
국민을
협력
감소
##상에
받았
거짓말
안정
교통
##라마
의해
대변
싶다
##지면
제외
힘을
최저
##지요
인해
황교
시간이
아래
최종
있으면
##행을
##상은
민족
너희
반영
독재
판결
미국의
이들은
##ㅋㅋㅋ
잡아
##감이
##우고
##스타그램
의사
##심이
입장
사람을
불안
실제로
##난다
국회의원
##한국
유치
##격을
##자에게
##BS
떠나
70
도대체
민간
##까요
대가
시작했다
계약
만드는
모델
##등학교
거기
출시
가슴
가입
이끌
이익
하다
지금은
하기
##웠다
불구
들고
높아
이명
형태
##국이
##주택
통일
오른
아는
##사일
##르게
아침
##위로
여전히
대해서는
노조
##사로
##리로
속에서
##세가
훨씬
나온다
무조건
##잖아요
원래
##시가
마찬
10년
본격
##만을
##리스
지하
##했습니다
##인트
##관이
보유
토착
##분을
##사고
##스터
##으니까
어린이
뉴스
혁신
나타났다
인도
중심으로
반응
진보
##국가
##거래
##적이고
대기업
##리기
문제는
밖에
전화
구축
진출
원내
##준다
불러
생각해
하락
방침
##시킨
모양
적폐
31
##법을
군사
장애
아름
2월
##과는
시설
경남
우리의
수요
##회담
##하세요
좋다
설립
##함을
시키
1만
이래
##자에
##당의
실패
##지않
이사
제출
예술
##산을
##하는게
고통
등장
##어라
달러
마찬가지
##경기
종합
제한
##연합
기획
약속
나오는
니들이
일어나
이곳
갑자기
##건데
인권
##조차
일으
속에
빠져
응원
##명은
##수도
##든지
##되면서
##듯이
우승
##이크
수는
마을
11월
전기
그러면
것처럼
능력
전환
신뢰
바뀌
입국
##0년대
구매
##한데
##정의
내부
분양
출연
외국인
덧붙
남아
보였다
개념
작업
것이라고
관심을
점을
##던데
##기간
전시
왔다
언급
##품을
중인
##들고
나쁜
통과
이들
##규모
##으로부터
전라도
이젠
차례
근로
##어가
그럴
울산
교수는
무시
소설
##량을
했는데
중소기업
##성의
##건을
##뉴스
하며
##지게
자주
아들
##스러운
음식
촛불
개돼지
그것은
##or
##문이
##도에
이야기를
안에
건물
##단이
대중
이명박
당장
##소득
임명
서민
체험
마치
##시키고
##이션
훈련
철저
인식
일자리
취업
대화
##투자
근무
도와
궁금
주인
담당
경북
##대통령
필요하다
시험
회의
##관을
보이는
전해
##계획
##방송
내놓
타고
##구의
##금융
##만의
##대학
거쳐
갈등
자본
한국의
인물
##제는
개정
도로
살펴
홍보
한반
##건가
대전
위해서는
5년
있었던
2차
포기
이재
기념
##한다면
##러스
기초
##었습니다
가능한
##에만
위반
조용
매일
해석
벌어
##어를
##수한
##조선
##와서
줄어
북한이
그랬
##군요
적이
올려
##20
필요가
##봐야
회복
##스럽게
자녀
##만에
상황에서
##이버
여기서
인상
바꾸
내용을
##일에
##금이
했던
##이라면
##였던
할머니
##겠냐
아프
말하는
TV
##구는
단계
프랑스
없다고
##활동
근거
민주주의
##가의
당선
만약
연속
북한의
##하려는
것입니다
##회사
미세
##끼리
노무
아님
##경찰
##량이
거부
##BC
비난
##보자
눈에
나이
##때문에
##정치
이하
##기와
시간을
##명으로
##통신
##체를
##나고
않으면
##비가
목소
##는게
인근
안되
재미
보이
##에게는
##en
자체가
##안에
##이상
##간의
##질을
작년
맞아
##성화
정치적
이란
이유로
사퇴
앞에서
##이익
가르
기반
나왔
##받은
마음을
나왔다
향후
이제는
자랑
혐의로
##인과
사람의
보기
##해요
한마
##50
늘어
그러니까
##스코
원칙
##당한
##단은
씨는
본다
##시켰
##주세요
것에
스트
##다운
##었을
##반기
혜택
여름
##무를
##수로
금지
##학과
##리한
평생
나머
솔직
많아
제조
주장했다
덧붙였다
지정
살고
둘러
위에
통한
2014년
##계가
손을
등록
같은데
자격
가정
##관은
확정
##국에
자료
전자
온라인
80
시청
##많은
##30
피고
아내
##바로
현장
##했으며
2015년
드라마
강원
괜찮
달창
##제에
소유
항공
앞두고
수행
이번에
그거
도움이
나올
쓰는
당연히
뛰어
##고를
##세대
인터뷰
대법
특징
사법
앞에
##인으로
경우가
부끄
헌법
##소가
중이다
##받는
이유가
나를
가치
여기에
##거든요
##재를
이루어
누군
거야
것이라는
쓰고
의한
그룹
추천
중단
아닐
##트남
규정
완전히
##아라
이상의
복지
##려서
운전
듣고
지들
##건설
##는가
이유는
2012년
##놈들
있어야
집에
##at
##분에
##씨의
보통
##려라
그들은
나경
시대
사실상
3일
상대로
##분기
그건
수상
소통
코스
알았
유일
##당을
스마트폰
##발전
##별로
감염
입장을
것과
##주를
역대
##신을
생각하는
재산
##어버
일은
노무현
##es
측은
어디서
나누
국무
##건지
다가
2013년
##운드
##트는
##것들
##려야
주도
##복지
마무
관련해
##져야
##번째
##워서
저렇게
지적했다
##지면서
인제
화장
##과학
##디오
의심
충분히
스포츠
감독은
재정
##하겠다는
##주가
방식
##하려
##에서의
##상으로
말도
전남
하자
유통
일본이
##시오
1000
##지와
##말로
서울시
주로
##님의
##진을
현지
##만한
##면을
##만으로
없애
문재인이
베트남
명의
평소
자세
##억원을
사업을
말한다
프리
##증을
가만
기부
투입
##al
있어요
##증권
사상
연기
##치지
##었지만
신문
원하는
최고의
원내대표
##적이다
##레스
##학년
물어
특정
결과를
바탕
##라서
생각한다
검찰은
이기
##론을
##ar
무서
##왜구
비롯해
##이로
밝히
경찰은
##부모
1일
##하려고
중국의
만족
겨울
지식
수술
##간에
하나의
지배
힘든
##거냐
과연
병원
제도
##he
접근
##질이
손해
##계의
규제
불구하고
##률이
윤석
##리며
일본의
##시를
느껴
뭔가
저녁
##에요
희생
혹은
촬영
있으니
안되는
##진이
청소년
새누리당
불편
##일까
매년
##리와
살인
위협
있다면
야당
중에
동물
그녀는
##위의
시도
자신을
회장
말은
##점에서
차별
강한
서울대
상황이
##역을
##시대
##화된
졸업
영어
##길을
##았던
##경을
달려
처음으로
##것이다
자살
등은
##가족
##여서
진실
미리
네이버
관심이
그렇지
미세먼
정리
##점으로
##구조
##임금
##율을
올림픽
여러분
나무
선언
만들고
##하라고
##단의
대답
호텔
하게
가득
정보를
나의
점점
채용
못할
##것이
중국인
사이에
인한
본인
자꾸
공감
5일
쏟아
##수사
자유한국
##국은
상황을
자리를
##케팅
##항공
의견을
생긴
전반
소송
했지만
건축
출발
##해야지
이름을
미사일
일제
##율은
##이드
##00여
##지말고
##가락
그것이
##먹는
아닙
제안
2010년
나중에
돌아가
부탁
##신이
197
위안
그들의
##선이
거지
##렀다
남성
사전
신규
임대
##정으로
바다
##병원
몰아
벌써
있는지
2011년
보장
##리카
문학
일상
비중
좋겠다
형성
물러
겁니다
한마디
문죄
선진
제3
##께서
조건
기록했다
목숨
소재
강제
돌려
굉장
그를
나선
인간이
상관
수석
회장은
##시킬
미국이
있나
##생각
10일
돈이
마음이
##계에
단지
##권이
공유
책임을
##음이
##함으로써
시켜
##전이
법률
##받아
##사에서
공수
시각
모르고
다들
직장
주문
몸을
##서비스
니네
##평가
확산
체결
##노동
##ㅠㅠ
마라
##들이다
열어
눈을
동일
들여
그저
박정
##형을
맞춰
기소
새로
##성도
낮은
것이었다
오랜
선물
만한
일본은
그것을
##제품
경우에는
가능하다
황교안
노인
##수수
##이의
향해
길을
활동을
##라리
지랄
비롯한
따로
##지기
기회를
마무리
##본부
##시의
##나무
한국은
##순실
##차가
이다
임금
끝까지
국토
2008년
인간의
##구에
들었다
수용
##항을
##텐츠
##카드
15일
##력은
20일
대북
바란다
1차
아빠
싫어
됩니다
일베
##조작
그러니
##나게
장난
해주
허용
토착왜구
휴대
##st
아예
흔들
##명에
한국당
##이팅
월급
##거운
대회
##점은
불가능
창업
애들
의무
점에서
통신
협의
도전
조정
##세기
알바
분노
##해진
이르
예방
심판
##제의
##금지
열고
작가
##나마
배치
전망이다
말해
##대책
까지
연예
4일
동네
세종
2016년
바꿔
##군이
친일파
##스러
신용
##리게
##청은
측면
에너지
##중앙
나머지
절반
구입
이벤
##비는
사장
제목
넘는
##나가
여야
토론
##대회
커피
대로
##씨를
그러면서
비슷한
불쌍
포인트
7일
집행
도착
잠시
바보
의원이
굉장히
##자도
벗어나
펼쳐
##점에
##관광
당신이
##전에서
##전문
저희
##마을
바른
무너
이른
##연금
##사건
회원
앉아
##회견
그것도
##기지
##부로
##수준
가고
꾸준
고위
일어
진정한
##군의
늘어나
##인간
명예
##호를
이탈
##안전
서비스를
방안을
8일
KT
반복
카드
##노총
##차피
고생
무역
이달
사실이
##성장
이용해
부인
사회주의
선고
작성
##트가
먹는
9일
##되기
승리
##가지고
지구
인수
2일
난리
최순실
믿고
깨끗
##제도
라이
2009년
##부와
##아버
한반도
프로젝
어차피
##니스
아버지
##진은
##차례
##10
기레기
완성
##랍니다
##원과
12일
##규직
이때
##화에
비상
90
디자인
##로를
말이다
14일
한나라
동의
##남불
전날
무료
##서에
태양
전용
##까지는
##지어
돼지
금액
35
셈이다
##군은
##줘야
영상
수십
##퓨터
조합
수도권
국립
##법이
못해
조치
##로남불
활성화
저지
골프
공수처
##자들을
실천
솔직히
내고
##들만
주말
더러운
출마
관련된
##히는
500
##소에
11일
동원
기자회견
##할수
##받을
6일
홈페
검찰이
마케팅
기여
창출
##독교
남은
바탕으로
어쩔
202
##보기
받아들
##느라
다행
글을
하던
보이고
##분의
특수
반발
직업
책을
##ic
있네
나섰다
지금도
##트로
축구
나오고
16일
##대에서
수많은
자산
차라리
긍정
##자나
좋아하는
이것은
부르
##화는
25일
4년
27일
##자고
##인들은
##다른
상징
모습이
보이지
삶을
자금
목적
##프트
##실에서
무식
##님은
법무부
뭐냐
13일
진심
똑같은
22일
##마저
17일
조심
##여행
##의원
작용
나눠
학습
##석이
18일
뉴욕
19일
##민주당
1억
달성
되었
##서가
멍청
예를
##바일
##방을
##경영
문을
먹을
##자들에게
기울
##TV
1인
23일
##이너
특검
압박
26일
21일
생명
연합
할인
월드
##it
변경
##온다
##력과
매국
중국이
교회
리더
비행
타이
의식
태극
받지
24일
말로
000
##문제
##범죄
열리는
28일
사형
##종의
##소는
거리
##할때
입을
청문
잡고
##기만
일이다
걸쳐
##화의
알게
거예요
청구
##영업
혹시
##비용
전년
##요일
부문
이중
편의
김영
원고
죽은
예비
##나오
##리적
##표를
때마다
국민들은
성격
##들로
##절한
잘못된
##리즈
##상도
진정
##뿐만
정신차
기회
질문
뜻을
컴퓨터
내세
양심
끝나
기업의
##공항
##권의
안된다
##주시
##목을
바닥
시작한
극복
하시
방식으로
김정
두려
하이
주인공
다녀
##당에
구분
가까운
베이
없습니다
이처럼
##함이
실험
관광객
고소
어렵다
하니
높다
무엇보다
강력한
##단에
안철
상담
##조를
##om
고개를
어제
최악
그만큼
때까지
##공사
이걸
외부
실현
##가요
공천
전면
지자
대규모
애플
유엔
별로
##계는
##워크
##메라
##정신
보건
기준으로
##리오
##쪽으로
삶의
##면서도
공산주의
박정희
##관에서
##추고
##해보
피부
아동
광화
유시민
우한
집에서
##져서
동아
크다
모바일
수원
언어
오르
택시
풀어
흐름
규모의
실질
취소
인기
근본
간첩
방안
##냐고
##이들
와서
것들이
촉구
올랐다
아무것도
도움을
과정을
없는데
##곳에
##체의
##거라
메시
조국이
##학을
##협회
뿐만
##하신
##교통
창조
통화
##체육
상처
개입
교과
196
피해를
성폭
1위
##해를
부여
일정
##18
남의
##나라는
모른다
소리를
북한에
연장
##짜리
위로
방침이다
초기
반도
모아
##하겠다고
봉사
##시스템
##자금
추정
너는
뒤에
찾는
뻔뻔
깊은
사람들의
##바이
##중한
##지방
보여주
효과를
누구나
감정
2007년
##바리
인구
연간
##자치
300
##주로
변호사
아니라고
집권
##이블
고양
결코
관객
##하다가
기분
명이
##올림픽
##스와
지시
온갖
##잡고
그렇죠
답답
대표가
##하고자
고발
##호는
자가
전세계
떨어진
반일
없었
싶어
제재
##명한
힘이
##으므로
##유의
최초로
36
30일
계열
중요하다
진술
불매
비정
연출
있을까
##oo
한미
그녀의
이것이
공사
확진
##구로
##이기도
틀딱
##동이
가야
##가에
취임
놀라
만난
한국에
도덕
이승
반성
끝에
뿐이다
모여
통해서
##말이
##기준
적극적으로
죽음
대처
된다는
빠른
##놓은
정은
교사
홍콩
이들이
카페
##되며
적은
중간
##상황
쉽지
걸어
지원을
무기
다음과
새벽
브라
##류를
중국에
대우
내로남불
예전
나경원
##호가
들어서
##것들이
폐지
차이가
##차는
우수
애초
출전
##석은
점검
미안
있음
지지율
##봤다
안내
##사한
유리
얘기를
문빠
목소리
블랙
참고
냄새
기업이
제품을
##들한테
특별한
그들이
옛날
성적
자율
정상회담
##보를
것이고
영원
배경
##조합
##도와
##선수
유니
자기가
전형
##전쟁
때도
기독교
상호
데이터
것인가
피해자
##고는
권한
##했으나
미국은
계산
거기에
징역
집값
중국은
##협의
발생한
눈치
너네
정책을
##프라
논란이
29일
보상
모자
검찰개혁
애국
##달라고
직후
사드
##0만
간단
##신문
원전
생각하고
어울
다소
위하여
소방
채권
최저임금
위기
가까이
##플레이
당신은
아가
비밀
입주
후보는
##력의
##니아
사람도
후반
아냐
##ou
부회
##률을
##서의
협상
분명히
어른
공장
거듭
조선일보
선생님
고향
##복을
##이었던
어떠
##관의
##인들의
이나라
이웃
아름다운
##결과
##미터
방법을
##000만
인민
이상한
##스럽다
않게
##식에
##유가
무섭
의미를
저도
##주년
똑같
##움이
##력으로
콘텐츠
모두가
없어서
##었다고
따뜻
아무런
##보네
맛있
뒤집
##금은
교체
##학의
말아
발표했다
##인에
관계를
조사를
하네
KBS
밀어
감안
연계
자극
##석을
##일은
##돌아
전투
2만
말한
들이
윤석열
사실은
가면
설계
##시켰다
종북
펀드
감옥
삼성전
연락
지가
한국이
국민은
##라지
가만히
해야지
형사
2017년
수업
테러
이럴
##대가리
##하셨
##지사
##지털
심각한
이해가
있냐
죽을
엄청난
##슬람
게다가
갔다
봐라
효과가
##식은
말할
세상을
##et
##세로
제거
찬성
했고
완벽
##선의
효율
자유한국당
##구역
그린
##아닌
##았고
가라
보도했다
내는
학부모
1조
##만은
시원
##안은
##겠어요
두산
상당히
비핵
스페
정신병
##국을
장면
지속적으로
떠올
짱깨
흘러
3개
안하고
밝힌
예상된다
메르
##겠죠
##보호
예측
##예술
주차
##먹을
이슈
공직
포함한
##조의
심지어
안에서
긴급
##되었
그나마
##단계
상상
##스에
세상에
아무도
##민이
##하우
##됩니다
##공개
##승을
인공
팔아
원을
대하여
조선족
억울
##계약
아니었다
회담
전북
검색
총리
경향
아쉬
지역의
여당
##속에
##상품
나타나
아닙니다
상황에
##바닥
사건을
##한게
가게
##으려고
##여야
자동
군대
32
충남
20대
##방에
##소에서
안타깝
##실이
분위기
나갈
##류의
공산당
내용이
##어야지
증권
KB
아이가
담배
대해서도
말에
##영화
비서
##치게
방사
한국인
꾸준히
45
##단지
##겁니다
이리
일자
맨날
이내
동생
의하여
4대
경고
되는데
그리스
##어로
응답
하는거
패션
##했기
##단다
##재가
집을
비리
그렇다면
공약
북한은
미세먼지
발표한
대표적인
보낸
대한민국의
##임이
조용히
곳이
##금으로
얼굴을
추구
씨가
통제
##과정
##년간
##후보
##법에
프레
천안
자리에서
가을
##용이
가로
##력에
위안부
약간
같아요
보자
영역
했다고
개소리
구체적인
행위
너무나
아닌데
거죠
입고
거주
광화문
##져라
##속도로
그에
등에서
##화와
장관은
##리스트
##리자
##조정
아울
##지마라
일본에
##상태
봐도
동료
시기
##연을
##주면
##따라
##아치
결론
머물
본인이
##직원
하나도
##본다
MBC
훌륭
남녀
준다
입학
##리라
미술
대학생
에이
진단
임시
##자동차
명령
##쓰고
해소
만들었다
하겠다
##말을
출범
##ion
##없고
##실에
곳에
##되어야
대부분의
##달라
기술을
##시면
논리
주의
매각
##립니다
폭발
##el
##트워크
세워
후에
않도록
##래도
정기
홈페이지
이들의
자영업
33
남한
답변
왜냐
##오고
이론
##등급
##부대
혼란
##통합
똑같이
##수있
최소한
##했으면
지상
메이
설득
##개가
확실히
초반
##화점
그려
봐야
##하는지
38
##놈이
부과
옮겨
모집
법을
##하면서도
##것은
차원에서
가해
정확한
대통령과
김대
자리에
##법은
##식품
고급
검증
##제한
##판을
고맙
쇼핑
결과가
##거리는
레이
##검사
기능을
못하게
공모
어깨
생기
##추어
충격
##미를
##라스
##하니까
프로그램을
멤버
개의
최대한
하더라도
뽑아
처럼
많았다
어이
##릭터
자원
##트의
알아서
##선에
경제적
##던가
안철수
##동의
차단
##공업
##선은
##드가
##산물
주거
##훈련
##적으로는
##ing
취급
진입
수준이
업계
##아이
물건
기생
같아
##학적
##량은
몰려
##시험
집안
눈이
##공원
##률은
가치를
##장도
하였다
없지
등과
나라의
계획을
##하러
##감독
페이스
##싶다
##것을
디지털
##된다고
기타
이탈리아
아까
굳이
인증
##대상
##때는
소비자
비례
팩트
끌고
##와는
치매
의미가
카메라
##지에서
발행
철저히
주사
더불어민주당
##직을
시위
##국제
배출
식으로
1천
새롭게
##고도
원심
슈퍼
##ㅋㅋㅋㅋㅋㅋㅋㅋ
판사
##노조
##해주는
플레이
한심한
없으면
너도
버스
대기
##할까
보지
그렇다고
못한다
얻어
수수
##진핑
##il
정도의
화가
##있네
니들은
캐릭터
##가면
미디어
반도체
##친다
화이팅
키워
정작
덕분에
둘째
사람들을
인간들
공포
노력을
경찰이
아이들이
후원
##명과
##대출
미군
##그러
당사
아울러
##권에
이민
몰라
평가를
입니다
생태
생존
삼성전자
6개월
도망
통계
부터
34
해양
##경이
##소로
##보았다
##나서
혐의를
한화
파괴
사진을
##스토
##호의
매달
가수
##is
이외
고마
사용하는
##액을
저러
심리
##드로
여의
이념
듯한
오지
##게임
없네
##처리
언제나
있었고
데뷔
ㅎㅎㅎ
바랍니다
관람
학생들이
분리
경기를
수능
##다시
칭찬
복귀
##전거
##년이
##동에
디자
##먹은
때가
길이
그러한
##전략
##액은
문제에
생겨
문재인은
##주기
몰랐
경제가
복잡
나아
필수
##봐도
당초
가능성을
지휘
##파크
탄생
##수에
빠르게
##된다는
떠오
##관에
##부터는
하나로
종목
##쟁이
된다고
같습니다
발휘
성과를
여부를
집회
대통령을
실업
##사무
##장애
##하여야
이로
지들이
프리미
수사를
##판에
##셔서
##였고
이정
축하
##리어
좋을
친환경
보여주는
변화를
있었는데
명확
정체
환자
앞으로도
갖춘
거론
소리가
수백
유튜
기사를
취재
##라니
##이든
경찰에
##19
##티브
유도
놈들
가격이
##함에
##시즌
##마자
##협력
단독
식품
##줬다
질병
생겼
사항
않을까
경우는
전해졌다
분열
마음에
오바
사장은
이혼
##책을
##유를
발굴
돌파
##지구
역사를
대가리
수립
노출
##럽게
점이
오픈
##망을
아웃
표시
##당히
소외
호남
##비아
실적
물고
##해가
##트에
하냐
올리
이른바
지하철
##산이
가짜뉴스
여론조사
싸움
##하려면
힘내
스타일
이끌어
김성
##기까지
##미가
##메달
2006년
초청
전개
개막
부처
기가
##권은
##이에요
##nd
##활동을
시장은
상식
그날
##문학
마침
겨우
##증이
보조
주지
있음을
시는
합리
전력
물었다
##화로
##물의
받아야
한일
아나
한국을
##전은
상대적으로
연습
##만명
##키는
창원
##이도
이유를
##겠나
##으려
국회에서
좋지
매국노
수치
##이던
시진핑
##해온
##세에
하는게
발사
체계
치열
##주에
머리를
미국과
##투표
민주당은
##악한
##두환
개별
내일
무죄
무엇을
##재판
##곳에서
것들
했습니다
##어는
단일
호소
서서
쪽으로
##았는데
교육을
가난
##위원장
적어도
##인에게
##총장
농업
취득
##들었다
신설
##뮤니
담은
수시
올린
높이
##비에
##인거
클럽
##용을
월드컵
위치한
받아들이
건너
인기를
선임
##류가
##히고
##발을
5개
맞지
##지자
최선을
경우도
우파
세대
아우
초등학교
협박
수정
##진의
합격
멀리
##대학교
우리도
##의가
아이디어
물을
이틀
##있고
##타를
증명
##같다
상위
국가의
##사인
끝난
##전의
배달
후보가
일도
##비로
문통
능력을
때에는
동맹
4개
##님을
##00만원
##인도
##공단
평창
즐길
##나다
혜택을
##수수색
주둥
공항
자료를
##기자
나아가
포항
대표팀
한국에서
##사람이
심사
##re
##자원
시장이
IT
##하이
전세
다루
개인의
시급
뒤로
여자가
##주민
##피언
없음
박원
##야말로
지자체
##ol
아이를
##결을
사용할
##스런
##언론
태극기
소녀
##아는
개편
##물에
동영
##리다
체포
늘어난
야구
##조가
채택
일주
##더만
크리스
##면에
평양
부드
##분들
##시길
등도
내지
생각은
육성
화려
대리
확장
##란히
the
느낄
그래야
운영하는
국가가
다섯
관측
페이스북
##보지
분류
이성
##리트
재벌
떨어져
폭행
인재
넣어
사람들에게
사랑을
이행
옆에
##공간
페미
받는다
##ㅎㅎ
##음에
무릎
##수와
일하는
세상이
정부와
챙겨
폐쇄
##주지
전두환
##가능
자전거
넘게
##량의
스토
자빠
압수수색
##번에
##청이
지금의
##겠어
악마
당연한
##자산
재난
질문에
동반
##40
보면서
객관
##가격
올렸다
##사태
##위해
그러므로
하는지
##씨와
허위
##키로
##민주주의
홈런
저기
법적
다이어
##하네요
##머리
##내기
없지만
포함해
##25
##소의
##긴다
자존
법인
유명한
것인지
설정
쪽바리
아니야
다를
이상이
in
들려
실망
결합
털어
##집을
신속
모른
금리
195
반박
##직한
##수석
##공자
투쟁
시장에
##세는
믿을
매매
##입니까
##방이
다이
찍어
##책임
부분이
민주당이
꿈을
출입
동양
트위
##효과
##기록
지역에
##졌고
회장이
강하게
현대차
부상
상황이다
받게
눈물
##가구
김종
저렴
데려
##답니다
##세의
복합
중에서
폐기
원자
연봉
눈길을
제공하는
조치를
##사들이
##NS
들어오
늘었다
빼고
일찍
하세요
##카오
손에
무능한
##집단
##위원회는
투기
##리나
##인줄
바이러스
연말
동남
20년
37
그다
##재단
단순히
간의
우려가
기회가
선박
인하
##각을
사건이
걸려
원숭
올해는
##인가요
##11
추가로
##이와
##식의
축소
절차
조언
##am
장학
##지마
##치기
선호
만들기
사회의
맞춤
수학
포스코
행동을
##고가
##는거지
부품
위원장은
해체
했을
부부
긴장
곳은
입은
대다
이익을
미래를
이모
더이상
했다는
##서도
##IA
때려
##해졌다
##힌다
##럽다
완료
보니까
조기
대폭
##운영
들어간
##르크
법정
열었다
주관
참으로
점이다
##십시오
영양
메뉴
현금
다르다
상장
선배
##하고는
응원합니다
고정
of
##더라고
같았다
우주
##쪽에
알려진
센터
시장을
##향을
##피스
활발
왜곡
아르
하나는
옹호
##리면서
##그네
거다
공통
김대중
내게
##로지
##설을
아니지
##억원으로
세금으로
근처
##거고
##행위
개판
완화
30분
건립
분이
사기꾼
뛰어난
##에게도
##성으로
##경은
##개로
단속
경험을
배려
##준표
마감
내에
시장의
##시켜야
##보내
##시와
##위기
##겠네요
총장
목표로
실행
반대로
##모를
초등
정치인
잠재
2005년
유일한
접촉
파견
당신의
##액이
시작으로
##어져
##형이
영업이익
특허
65
고교
##국으로
2000
내린
며칠
##시티
##억원의
목소리를
계기로
김경
좌우
상태다
##문의
##란드
폭력
초대
개방
##연이
오늘날
##건축
조만
##로가
##됐고
3만
시장에서
확인할
나라는
리얼
##있는데
일에
한나라당
비록
수준의
마약
실무
영웅
비싸
도둑
풍부
상반기
의존
오바마
규정에
##까지도
##해왔다
##상과
부족한
무리
노예
간다
##스티
손가락
연금
서초
##토록
재무
##하시는
도서
##대와
장애인
행사를
2018년
주력
나름
신한
운용
문제로
하나가
토지
끊임
우리나라는
그니까
##해야한다
##정부가
가리
##르지
##든가
평등
감독이
편안
트위터
많고
저질
모르겠다
오직
활약
194
##정당
들은
##영은
대법원
하셨
아이들
알지
##km
기계
##15
##줌마
출산
개성
##겹다
꺼내
##총리
##라운드
##가야
의도
박사
능력이
다니는
냈다
##합시다
하반기
마찬가지로
##진흥
##했어요
아시
목소리가
##무역
데리고
##돼야
에어
##업계
##포를
네가
##실로
치고
소화
##ed
살려
짧은
##관련
현행
근대
##하는건
##드리
유튜브
공화
##하지말고
이스
무관
일방
대만
##사랑
아프리카
시간에
도쿄
이놈
커뮤니
##민족
대한민국을
느낀
유출
무려
부채
##아도
존경
갈수록
전화를
출판
개가
채널
느꼈
##펀드
주제로
##던지
때부터
배제
민생
참석한
##케이션
##걸로
52
한다면
즉시
##연히
기재
홍준표
어떠한
기존의
해명
무서운
##기구
존중
내다
있었지만
전부터
올바
발달
성남
검은
##테크
방해
ㅉㅉㅉ
접수
39
식당
점차
정권이
뇌물
벌금
##군을
##행이
##민의
않나
##상공
장사
##치의
제정
지닌
##민은
알려져
##하라는
이용할
육아
어려움을
지지하는
##실한
다름
분위기를
선두
뭐라고
정확히
체육
##회의에서
충돌
내내
극우
반응을
어리
일어난
사내
강요
외에
##안보
부패
전문가들은
불리는
없어요
대상이
##공동
##지검
무상
이자
매입
다음달
##주도
##분야
##국에서
구성된
사람에게
##였는데
##연구원
##건이
제외한
##션을
##웨이
##받았다
##라우
어려워
대화를
기도
드러났다
과도
##재는
중국에서
양아치
정치를
##료가
창의
조만간
##감은
국민들의
##해질
이지
방법이
할아버
48
있으나
##배를
##봉사
##이라니
얻을
##생산
오염
김일
##모델
관여
식민
사이비
유기
어쨌
전공
예수
그렇다
북미
인력
고등학교
수준으로
호흡
문죄인
호주
되기
음주
날아
임기
주체
구글
통상
##항의
동참
기름
나쁘
결정을
방어
이번에는
돈으로
##조직
##쇼핑
##사업을
##루킹
아니지만
작업을
마이
수비
적극적인
빠진
가구
이같이
철학
##보며
없었던
##겠는가
##라가
김태
정비
##낸다
감성
네트워크
##됐다고
인사를
친박
##을때
언젠
사유
최악의
품질
중도
부분을
밖으로
##미애
##겠습니까
##연맹
차를
앞장
첫째
민주화
##보다도
##월드
만남
3개월
보완
##상에서
데다
보안
형태로
유승
기아
##능을
55
##기기
거기서
아들이
마주
달아
내리
적지
##세력
일관
##했는지
곳에서
은퇴
놈이
가끔
걸린
SNS
고령
깊이
##치면
인용
집계
생활을
느그
내용은
##었어요
위선
태어나
않습니다
뭐라
현장에서
##대고
##통을
##해지고
쓰러
직무
올랐
결승
##하에
##게요
생각했다
헛소리
많은데
안타까
상태에서
투자를
한달
막을
##심의
적합
자국민
지분
이용한
##ag
자치
##나면
##는데도
아닐까
나오면
모를
시작된
분들이
아니라는
##5000
선출
강원도
신체
노후
대변인은
##종을
피의
최우
고등
이상을
그에게
##매매
쳐다
내용의
악화
맞은
##해양
##관계를
무한
민노총
등등
##술을
입증
방향으로
시내
넘겨
10여
몸에
##천만
환영
나베
강경
##위에서
저거
관계가
기생충
##문은
##미는
뿌리
방법으로
##분간
살해
관련한
150
##ch
대단한
맞고
##단으로
퇴직
에휴
경계
미국에
요리
이벤트
##호텔
##안타
날이
빼앗
한참
오빠
모임
10시
저게
신분
의혹을
프리미엄
목적으로
언니
만날
제공한다
애초에
계약을
챔피언
##12
뒤를
##서야
경우에
##법으로
의지를
방지
42
소년
주최
맞다
##하자는
청문회
자본주의
청원
감사합니다
두드
승리를
세금을
비즈
한강
##연구소
##하더니
무게
화학
##놈들이
##이프
##여자
##고한
##야구
주사파
미국에서
몸이
##물로
가동
지역에서
##관과
알아야
출근
##조는
말하고
##터리
즉각
31일
##버스
##법인
그럼에도
향상
차기
##없어
##버린
##쳐서
제주도
초과
강의
비판했다
김현
좋아요
100만
석유
신기
##았을
열린다
공공기관
비정규직
애들이
##령을
말라
미쳤
현실을
##았지만
##치로
불가피
##감한
처음부터
##필요
##십니까
##가로
작품을
안나
문제다
없으니
있는가
필리
시범
연극
본질
당부
##화하는
훼손
내렸다
영입
충북
##까봐
투수
##내야
마친
놈들이
한두
요구하는
2개
곧바로
개헌
##됐던
30대
기득
이미지
감싸
믿는
감시
죽어
우린
남자가
포장
##공산
당해
오랫
2004년
##시절
검찰에
주한
##려나
보복
##었으면
##재로
##제와
목숨을
##종합
취약
오로지
원인
개봉
물리
##있게
투명
##정부는
##60
##이사
로봇
정유
일본을
그들
법원
정의당
##사람들
내에서
프로젝트
공기
리그
생각하면
본격적인
방역
##은행은
##르기
가계
훌륭한
사고가
보일
정부에
##축구
나오지
삶은
##무는
당한
인간은
##령이
##조사를
매장
쉬운
다음에
공을
자아
이겨
##되는데
외환
##구리
4차
조절
빨아
나와서
안녕
왜냐하면
집어
막아
살기
바라는
맞게
##TA
##행정
##지니
언제까지
얼굴이
조중
싸우
##선언
여의도
항의
무대
갤럭
##억달러
장관이
일치
오늘은
해요
연방
국내외
시리즈
전교
없게
국정원
하나님
철도
##시기
상임
시민단체
낮아
종료
합병
##지다
들어가는
손님
권리
##생을
시스템을
유사
느낌이
비싼
똑바로
##질환
나가는
잠깐
75
안다
차이
파업
##랫폼
대책을
대한민국이
##소송
메르스
##패를
##짓을
##리즘
현재의
부장
인프라
##하지는
##전으로
사이의
국산
##화학
##앞에
상당한
떨어지는
버티
한정
1위를
면접
인지
편집
그녀가
않아도
##있어
뮤지
나라에서
세계적인
선진국
증가했다
좀더
연주
##했네
입법
##격한
##시마
##심은
대놓고
43
만드
찾을
동기
보관
속으로
CE
부모가
##치며
##다란
영혼
보인
##보가
##경쟁
텐데
##았습니다
얻은
##락을
##특별
지옥
부대
##코리아
표준
옷을
착각
점은
##가며
##할지
##연한
##무원
목표를
담긴
출석
이르는
광역
업무를
짜증
적당히
가격은
중국과
여성의
##서울
나설
분야에서
시대에
똑똑
모으
##선에서
정신을
##사항
부담을
카카오
##조원
##자유
##사진
##금리
정권의
물질
##중인
법이
##졌네
버리고
전염
따뜻한
적발
깜짝
##심한
##했지
브라질
흔히
정규
명백
직전
첨단
##답게
주장을
재앙이
##실험
타격
나라에
감독의
갖다
그러다
지방선거
표창
죄송
##프레
브리
##텔레
늘고
##되자
##는데요
##산의
##그래
##장한
##다는데
##싶은
에라이
##트리
정상적인
드는
집으로
##좋은
캐나다
전파
##폐렴
사랑하는
##저히
##정과
뜨거운
##줘라
##망이
가치가
축제
99
할수
##기획
양성
##하길
이름이
자연스럽게
##싱턴
##지며
것이며
봅니다
주장하는
갖는
오랫동안
##었나
부진
회사의
##팀은
##용으로
아이폰
건데
네네
2000년
##길이
3차
들어갔다
오리
유권
급증
소프트
맡은
장악
독자
관찰
##나간
읽어
철수
않지만
구간
생각합니다
차지했다
단순한
##단과
##셔야
##선동
분들
소환
##더라구요
##이한
##le
성인
##부장관
CJ
##하기는
##층의
자신들의
조금씩
##발이
상품을
청소
##으라고
목사
회계
쓰지
최초의
9시
특혜
법안
괴롭
진실을
##보수
주어
##청에
대립
국민의당
침해
이렇
점유
##러워
할지
난다
세력
정착
징계
##화하고
##치료
정해
갤럭시
그러자
44
이래서
변화가
사로
##라엘
격리
10만
안팎
치료를
##신은
의견이
문재앙이
종로
##고기
여성이
서울중앙
정치권
키우
화장품
즐거
5000
질환
각오
성폭행
부활
잘하고
주변에
우리를
##타임
3대
자는
먹어
아저
요금
깨달
지니
담아
해당하는
경기가
어려울
예약
##추는
선전
##회의를
##우가
나면
앞세
고대
어휴
##이즈
차가
지어
##가스
드루킹
49
##물은
2020년
##팔이
끝내
일부러
결과는
간담
이천
달하는
상업
독특
답했다
마땅
않는다는
지방자치
실내
##검찰
위에서
인터뷰에서
성향
캠프
##함과
영원히
자발
비핵화
찾은
사이에서
##정상
##신의
지능
##었다는
운행
아줌마
마치고
역사적
인간들이
것이라
##조리
한쪽
본격적으로
박원순
대사
클래
사업에
##차별
##영이
농촌
남겨
정경
미통
적응
악플
##id
협조
문자
30년
대박
명품
우리에게
47
싱가
든다
##⠀⠀
##나와
##십니다
싫다
##이닝
KIA
실수
지내
있어도
의하면
##비의
활용해
가능성도
분석했다
휴대폰
저항
놓은
부사
1회
가볍
무지
주가
##중공업
##형의
캠페
##해지는
논문
엄마가
짱개
좋다고
이전에
이정도
##치에
##켰다
##생이
지적이
방문해
입장에서
기자회견을
이스라엘
회사가
침묵
스피
##공을
외에도
내야
절차를
죄를
##ct
##박한
단기
물가
마이크
그렇지만
양도
아버지가
현상
추억
##댓글
정부에서
##등록
지출
##하의
이주
그와
발전을
##였지만
진상
##원들이
적절한
컬러
발생하는
부실
평범
##있냐
##일로
행복한
죄다
이만
대안
예고
공소
달라고
스위
운동을
국민연금
한심하다
지원하는
##담을
메이저
지진
##좌파
김진
시달
게시
시가
##례를
##쓰는
##처분
마시
반대하는
파트
주세요
새정치
런던
##가라
A씨는
##목이
잡은
41
머리가
안돼
입에
넘어서
2002년
업종
보며
##건의
##80
전주
탈출
베이징
##니깐
등급
##리네
전원
##살이
##통이
둘러싼
말았다
배가
또다시
##익을
##숙한
##골을
힘들어
최고위원
가시
##만도
##아지
##웨어
바람에
이시
만일
붙어
무식한
아마도
##하지도
46
개설
방법은
기록한
거대한
절대로
비교적
문제인
녹색
맛이
##as
아이템
교환
양국
이야기가
정도가
권력을
##소리를
추미애
보급
의사를
쓰레
사우
워낙
##깝다
마지막으로
멍청한
미치는
##재산
아기
##스에서
않기
용서
거두
어르
플랫폼
##거면
경험이
뭐야
하다가
유발
##음에도
##선으로
해보
끊임없이
준비를
연관
적절
##당하고
누리
증언
사회에
시의
미쳐
간호
되게
##스테
파리
에너
중학교
좌좀
##자료
유족
금메달
로마
용인
음식을
느끼는
SBS
손으로
3000
가족이
선수들이
살아남
##당과
##았다고
풀이
주주
##이죠
##어리
여자는
듣는
##집에
동남아
보증
##드의
##교수
압도
외면
저축
유치원
##잡아
통보
번역
술을
부모님
##길래
구체적으로
하지말고
##태를
커다란
54
가려
없기
##보단
드디어
시사
##석에
일대
사실이다
고유
예산을
##포르
##현은
빌려
참여한
AI
##였습니다
##비와
이해할
허가
있었습니다
소식
획득
하긴
시기에
좋고
말이야
한가
무엇인가
화재
워싱턴
심한
##전화
##면적
막말
남을
태양광
도심
올바른
빨간
마세요
의원의
존나
##능력
진중
라디오
##공화
원인이
이같은
모색
##렸던
##중이
정규직
이용하는
한테
노사
줄어들
경주
기원
뭔지
기상
매체
방사능
정권을
위대한
##목으로
전후
붕괴
기쁨
식사
정신이
앞둔
서양
탈북
바이오
부분은
유력
왜구
1시간
##프로그램
##정부의
##들에게는
재개
세계에서
보편
우울
2003년
##성한
마시고
##로의
이딴
못하면
국민에게
보았다
앨범
대거
재활
##un
##시켜라
##빨갱
##놨다
점심
##소한
불교
영화를
웃음
이들을
##럽고
자네
##방의
후배
##금의
2천
하니까
운영하고
대해선
충청
점도
김치
40대
부작
전략을
##림을
구청
비가
##해주세요
곳으로
갖게
##산은
2018
들을
##체험
이슬람
계좌
실시간
가질
추모
고려해
##센트
향한
##같은데
짓을
이미지를
해운
가상
매수
규모가
하는짓
늙은
회장의
언론이
결의
구제
불매운동
승인
여기저
어쨌든
읽고
여부
기각
어쩌면
도발
20여
윤미
부담이
2위
건강한
하려고
##살을
##했다가
겪고
##렸고
일각
뚜렷
##했냐
##한건
있으
##셨다
##아리
##형은
##ent
##색을
보내고
아닌가요
##구청
할까
##70
4대강
말하면
연령
신선
처음이다
여수
극단
##크로
##병을
케이
수요가
단어
##로소
##산에
2루
국내에서
썼다
질문을
생각할
돈은
##씨에게
193
이것도
부지
찍은
우수한
수영
5만
이었다
##저리
##시장에서
##인듯
넓은
##지법
제4
방치
갈아
다시는
정은이
##는거야
일반적으로
필리핀
##해줄
스트레스
##곳이
검찰의
##분은
것이란
서류
조국은
한국과
부적
결과에
지혜
PC
미개
##탄을
##용은
한글
총리는
보냈다
마음으로
##빨리
불리
붉은
##해진다
아쉽
혐오
발언을
##하긴
맡고
##건강
보존
##브리
##다리
알았다
돌아오
치러
##우면
유전
##위원회가
것만
진료
측정
그래요
소식을
6개
##거임
잊지
한번도
일시
등이다
수천
확인됐다
힘들다
막기
입시
7시
교수가
상고
헤어
일본에서
and
부당
들어갈
경쟁력을
죽여
터뜨
느낌을
의혹이
원내대표는
##층이
진행된다
나간
후회
중동
##거리를
천연
블루
텔레
고통을
##이게
피해가
##카페
봤다
요소
경제를
##양을
후손
구현
수준을
충분한
기분이
경쟁력
일종의
하라
왼쪽
스트레
시대의
제조업
2주
물타
북한을
##구먼
비중이
안심
넣고
이낙
중국을
살짝
상속
성추
##니가
##밀한
##연은
국민들을
##서로
##색이
##화한
##사이트
가벼
##었어
부자
참여하는
##세다
김재
입국금지
고집
##실히
##텔레콤
이름으로
##만으로도
해방
올리는
밝혔
의뢰
배운
동일한
##준비
색깔
위기를
건조
답이
교류
뽑은
올리고
함부로
##구려
총선에서
한데
2억
##기능
김씨는
차지하는
한때
진영
##적의
괜히
아니냐는
##부문
스테
##사실
재건축
##널드
그간
잘하는
##생활을
##ED
손혜
##지나
들여다
감각
##식과
기록을
담겨
##미술
흥미
##마를
##황을
추석
양반
진행된
만만
##운전
##동은
이러니
##시키기
재판부는
##욕을
##평균
##당에서
멋진
오늘도
트렌
사고를
입원
이어질
##연대
1인당
GS
대외
ㅈㄹ
비즈니스
아픈
무엇이
수집
부분에
제약
6시
59
##시한
##클럽
##건으로
에서는
초래
노동자
리더십
쪽팔
##OOO
##하고도
태풍
##차로
방향을
몇몇
##없네
뇌가
자유민주주의
##명도
매력
자체를
거절
##으러
그러고
사이버
연설
시나
말만
기업들이
청산
##스포츠
중심의
2배
##풀이
주제
지향
법무부장관
없나
않았지만
세계를
유입
ㅅㅂ
여겨
기다리고
동해
대표의
크고
당일
추진하고
김동
여유
기준을
신입
비용을
##일본
합류
강간
대한항공
유행
조국을
분위기가
##벌이
구라
학생들의
북핵
보게
##해주고
씨의
##진과
동성
##작을
가스
철거
##한테는
민정
우리나라가
무렵
서해
구역
이종
금방
##조에
말아야
CEO
##겠느냐
교활
세운
방식을
##감과
##신도
것보다
##법의
급여
##약품
임원
귀국
문제의
##더라고요
추락
경매
살아라
##사도
근육
##사이
##시코
##적은
##했어
##자다
얻고
##장인
##모가
##운동을
##관으로
##양이
코스피
핵무
생각도
걸고
예외
##물고
일본과
나에게
부추
태어난
총괄
꿈꾸
##가리
수준이다
##했나
신중
##스키
##곳을
##로서의
아무래도
금강
토대로
프레임
대결
정도는
부딪
##물질
맞이
##하죠
##인권
##자본
했으면
##애들
##니터
지지를
##신청
##부에서
##졌다고
다수
##쓰레기
가자
##때까지
##타운
사로잡
기대된다
##액의
단식
방위
소형
이런거
지연
가량
둘이
일주일
청약
균형
합동
##등을
스크
400
##하더라도
##드립니다
아이들은
깨닫
##라의
끌려
##이들이
##ow
얼굴에
썩은
채무
##조치
##방에서
않았던
##버리고
유학
만들어진
의결
밀려
저리
선도
서구
다이어트
요구했다
##서와
##고에
누군가
지속적인
사업이
##늦게
이순
##되게
NC
##있나
##군에
##대사
##체계
나타난
그렇고
불어
제도를
정확하게
##왔던
확실한
스페인
공개했다
죄가
##졌던
여기저기
공짜
보유한
오해
##가게
거라고
##사회의
드러나
계기가
결제
의지
강행
휴가
배상
##층에
##면으로
##들여
계속해서
##ood
##름이
안으로
산다
##로그
##ot
11시
구멍
간에
##먼트
##철도
메시지를
속이
마침내
##자들과
대한민국은
##호선
가지가
농민
널리
커지고
나라냐
임신
무소
수주
순수
추경
##대응
##아파트
충족
불을
운운
##절을
동북
사회가
체제
이번엔
눈물을
재밌
나이가
비례대표
채워
지나치게
##가량
입만
김상
화려한
맞서
격려
##었지
베네
##순환
주기
##로도
##들이나
##공장
그들을
측면에서
라인
##독재
저소득
부각
에스
##시장이
##평화
콘서
##시간에
후보를
학원
##벌레
2시
노릇
##통일
경기에서
착한
천천
##장에게
지은
평가했다
##연의
선수가
고스
핸드
물이
기업은
선동질
설명이다
##으론
지역을
진행한다
##받지
하나님의
넥센
##론이
승객
싱가포르
한마디로
##하지마라
##비서
명을
##하기에
나은
##기념
청와대가
떨어졌다
않다는
##세포
다르게
이득
종사
미니
##됐지만
였다
85
##그리
장소
누굴
다음날
몰래
이어지는
성공한
무사
한숨
증가한
신임
일으키
##억원이
명단
안고
##야한다
##옵니다
배신
가맹
최근에는
시민들이
##해지
개돼
끌어올
##이었고
섭취
##평양
##감에
연대
##미사일
조사됐다
벤처
잡았다
공시
유아
쩝쩝
어지
##됐다는
##이오
탓에
보여준다
윤미향
세부
실종
##16
##위와
행위를
58
##보세요
정수
자제
뮤지컬
어르신
##실은
백악
다리
수익을
고기
북괴
어디에
깨끗한
천천히
120
맞춤형
중반
현재까지
대표하는
자유를
파트너
주장이
##CC
주었다
목포
국방부
뒤집어
미칠
담보
사람들도
##판매
##회와
##시장의
시점
518
어이가
웃기
공익
당당
##죄로
쓰레기들
##님들
예능
달고
##것들은
언론에
테스트
180
긍정적인
##졌다는
박영
##혁신
##시장은
보내는
상태로
84
자기들
몰라도
하라고
##내지
##췄다
##억원에
학생들은
들어갔
신앙
지명
심의
왜이
구경
##희는
##ㅉㅉ
##거리가
##바람
어두
웃음을
조각
말까지
이것을
원장은
##일리
비율
더해
갖춰
얘기가
##00원
현상이
##줘서
##혁명
어서
규칙
짐승
공부를
##집니다
파는
동부
시대를
패배
활용한
되어야
저장
##레이드
##지인
##석의
##종이
대변인
브리핑
연애
진행하고
많지
##미래
##겁게
대량
감동
한층
##진짜
아끼
줄여
공중
##하지않
혁명
대대
연구원은
자국
매주
##달아
기대를
매도
곳을
##피해
##위한
간부
벌이고
상생
소중한
부르는
##치면서
##안의
우리나라의
##만원을
##배우
##한번
깔끔
##배상
체크
이어졌다
##파이
##교를
독특한
백화점
사이트
코리아
##에게서
마누
돌아가는
확진자
53
개그
보냈
배워
경제는
진지
##뿐이다
##센터에서
교도
겨냥
만났
잡는
사회를
시선을
양산
##위원회를
##겠는데
입맛
##추진
관하여
중구
진심으로
##것같
그릇
##놀이
일자리를
IM
미래에
지껄
발생할
아픔
기업을
공략
감당
당황
위험한
배당
관세
줄어든
##시하는
##추지
틀림
접어
가격을
범죄자
김기
탑재
청와대는
##둘러
결국은
민중
##스턴
있다가
##화할
화성
먹은
##침을
##주와
연휴
유가족
사건은
남편이
경비
##이었지만
붙여
얘기다
처분
테마
##나이
맡아
갖추고
##속으로
삭제
##에다
내수
곳이다
192
##티즌
찾고
날씨
많아서
##에서부터
노래를
희망을
조금만
생기는
시골
정지
기대한다
자한당이
##에겐
자위
도저히
화이트
##의료
##피아
내면
폭망
묻는
##감정
우습
움직임
대부분이
##재앙
신세계
바뀐
사건의
##측은
기획재
소수
만든다
문대통령
모니터
##때도
만들어서
기운
56
위기에
경상
또라이
클린
대장
편성
어렵게
생각에
##박물
수리
허리
##용차
세우
철강
##데이
우승을
##즈는
가슴이
아름다
올라가
##가와
뜻이다
인류
보좌
기후
김해
사람과
##았다는
##체에
당분간
정부를
국가를
문화를
신호
역사의
FTA
모습은
##스탄
##설팅
기반으로
##작업
하늘을
제공하고
##전과
고백
##투어
##하기를
정답
##평을
착수
##베이
많을
처음에는
64
##으려는
대륙
##을까요
세계의
북한과
##대문
데이
농협
##에서만
소요
싶었다
입찰
신의
어째
사립
골목
태어
최신
꼬라지
##개국
생길
##주인
황금
하야
유동
않았고
분야의
씨부
사전에
회사는
용산
##사람은
##교육을
찾기
추적
소위
##판결
감히
##표가
##아웃
성장을
과제
기업에
오피스
##사들은
귀족
사용한
사업은
담고
잘못을
오른쪽
##즈를
##뱅크
##했다면
##지수
거는
삼성이
고작
##할듯
어떨
철저한
춘천
후쿠
##용품
아닌지
착용
문정권
꼴통
불과하다
위조
##형으로
의미한다
자신에게
기술이
번도
너같은
사례가
비율이
##네시아
기어
벌레
확충
연예인
발급
##자마자
있을지
맛을
##13
비대
아이들을
사죄
영광
##경에
##처벌
SK텔레콤
##렸을
##체는
8시
듯이
영남
##무성
##구와
남탓
끌어내
내놓은
생각하지
##위원장은
중고
##생명
훈련을
고속도로
설마
##분쯤
범행
##점의
신상
요즘은
##거는
재수
창작
##현이
디스
##으로서의
5천
전직
설문
##리티
발을
시상
환경을
##판이
마이너
응급
던져
다운
그지
천안함
강릉
현직
아버지는
죽는
아이의
정식
구미
사랑의
편리
어우
##처를
##식에서
원의
높이는
##행사
구별
두려워
교통사고
##기들
방탄
큰일
친구가
임직원
한겨
납품
##료로
공연을
입장이
새끼들
구상
의문
싶지
바람직
높여
멕시코
미치
##보증
어디로
##도에서
눈으로
흡수
기자가
줄었다
바쁘
무료로
벗어
자라
##하기가
무척
전형적인
개통
성립
문화재
##14
##부장
유대
##오면
철회
후보자
말인가
##그만
공간을
4만
##수산
보여주고
##국인
##테인
들어온
##버리
책은
자유롭게
##지능
도내
데는
회의를
합시다
1도
이재명
보유하고
10대
옳은
##그릇
둘다
잃은
##어지는
##ut
있죠
소련
종이
성매매
##다니는
##봐요
저지른
##었네
##이유
##는거다
##되서
나타나는
태도를
##르트
좋게
##자리에
살아가는
그중
##면이
놀고
시끄
##마크
승부
누구도
숨어
##점과
##이면서
##해준
##평등
##년을
##전한
말씀을
##새끼들
고수
##우리
##클로
기사가
해군
현장에
1개
높게
마리
당내
중립
작동
정치적으로
김정은이
##들과의
##대비
이룬
바퀴
규모로
##말은
가졌다
##권과
##여명이
##청구
##법상
받아들여
너의
통하여
##무가
감정을
도널드
형태의
뒤에서
막고
인상을
##시설을
종종
입장이다
##료는
50대
##og
물건을
##만들
##파가
사건에
##줄이
여행을
##경기에서
물타기
##17
그쳤다
조중동
최다
인도네시아
##견을
대통령님
친중
특유의
측근
##층을
나눔
##어준
하느
##돈으로
##하듯
##병이
먹으면
불행
외교부
수령
##년에
셋째
##합의
##팀이
부끄러운
끝이
나섰
시대가
10억
늦게
류현
국세
##웠던
##랑이
들어와
##마는
다짐
##체로
잘라
##들인
답이다
수구
평범한
여기는
내정
지불
간접
되도록
뭐하는
##으신
끔찍
##ay
이상으로
##주년을
##학습
##시킨다
##집회
것인데
몰고
스카
전망했다
형편
전수
##재생
학교에
##이라서
어릴
기본적인
##인한
##역이
인건
들면
10개
##스러워
##력도
##격이
##농단
##터를
학생이
##서에서
각자
예전에
돌입
이후에
##번호
모습으로
시간은
길게
##아닌가
##신고
오면
##운용
##ad
##ur
유일하게
분쟁
사장이
있느냐
우한폐렴
이십
확신
##아의
건의
박지
씨를
활성
성추행
정권은
하나를
1분기
발의
##기나
자세히
##끄는
땅을
구단
주면
판단을
##CD
##가루
어린이집
66
반려
##비리
##버그
##이어서
전체를
맞추
이대
납부
무언
갈라
##의식
2017
따져
발악
##국과
독도
치열한
네티즌
떠난
도는
장비
살아야
##부지
유공자
찬양
적어
하거나
##예산
57
안가
평택
그렇습니다
##그룹은
##까지만
##러리
63
권고
##자로서
명절
##하자면
##겨운
대단하다
결정했다
찾았다
중에는
조달
모르게
##ation
공작
났다
승진
모순
정도다
##미디
단단
##000원
다스
유로
치킨
비교해
##바라
죽음을
남자는
잡을
특징이다
국민들에게
음성
변동
정말로
##역에서
##포인트
끝났
전쟁을
##테니
선사
이해찬
##백화점
개발한
공격을
갑질
##은행이
2001년
모은
##교육청
신도
의해서
##순위
전체의
이른다
상실
테이블
틀린
인생을
홀로
자한당은
안전한
속도
갈등을
##받침
##시장에
##천지
특성
##에너지
##로서는
걸로
##어의
##세트
심상
##관계가
일반적인
##기면
힘내세요
유해
##시하고
국가대표
편하게
딸이
명칭
##하시고
##좋아
난민
생물
더블
재배
##소와
돌아온
바람이
많네
극대
95
지역구
풍부한
부정적인
하지마라
도달
##미디어
원정
2층
주민들이
위원장
시작해
##조로
이나
가능성
##으세요
##iv
합법
수습
힘들게
대체로
열렸다
유승민
인정하고
참석해
참석했다
하여금
안될
엘리
후속
위축
오를
##타령
원천
보여준
벌어진
쌓아
##하는것
잇따라
경선
##은행의
협약
당부했다
인기가
즐기는
만나는
파워
움직이는
기득권
살펴보면
베스트
##개선
영상을
신뢰를
##어지고
##렬한
불확
끝나고
꼼꼼
##있으면
김용
이제와서
구속영
양보
물류
##겠지요
##이었습니다
누적
김모
##케이
직원이
##나갈
중의
보건복지
드러냈다
##구석
하도
신라
장르
##가면서
미국을
사안
맛집
소상공
##내며
코스닥
때문이었다
고객이
하루에
규정하고
기억이
아이는
급격
조례
정책이
뜯어
소송을
일정을
보낼
주식을
고문
##음악
가공
고도
##잡이
한창
지는
일본으로
상황은
지낸
##외교
##계올림픽
형제
##우스
##차에
##미나
백성
최강
거친
활용할
국회의원이
앞선
##대변
##건에
감수
##음은
##24
##us
회사를
촉구했다
점포
싫은
성공했다
세탁
사태가
##심사
##름을
##하느냐
산하
나란히
본인의
제2의
##박이
버린
복원
비타
뭔데
해주는
공기업
##플러스
##안하고
환자가
세계적으로
필요하다고
생명을
아닙니까
아이고
민주노총
아가리
없냐
노트
그녀를
##있지
달한다
바깥
5시
com
실질적인
물려
환율
주제에
중재
##사기
의료진
##부채
선제
##았으면
심장
숨겨
핵실험
충성
오고
후진
출동
다해
보아
후보의
사회에서
부천
자금을
초점을
케이블
해고
##이었는데
이따
수준에
##만원으로
무시하고
3천
성범죄
기대하고
그야말로
밑에
세무
분석한
필요하다는
한계
돈벌
가속
##버려
그림을
높였다
지키는
예배
2019년
이태
##만원의
##으로도
해상
침몰
##영의
뒤늦게
추종
##역에
종류
한남
독서
금감
군인
퇴근
수급
EU
문의
인물이
아버지의
금호
##할거
주가가
얼른
삼성은
이길
동영상
자문
남부
이끄는
거뒀
불이
안산
##였다고
##되기도
##매를
##소비
이뤄진
위법
보육
대목
자세한
매번
원숭이
준공
2016
##인데요
모인
신인
신흥
자격이
3억
##겠니
##시죠
##정책을
CC
흐름을
##오프
웃고
노력이
미만
##아니라
아직까지
시작한다
늘어날
##로로
##시지
별도로
창피
강연
조사한
못했던
이로써
##하겠지
전까지
##질의
존재하는
키우는
불쌍한
이사회
건지
불공
##두에
OOO들
방송된
학교에서
식민지
자진
측이
##교회
머릿
논쟁
모범
##ig
핑계
트럼프가
놀아
##마켓
이영
가르쳐
##빠진
##허가
제정신
총리가
##없음
##원도
터키
퇴출
역량을
##축제
절감
##영을
전망된다
걱정이
##위원회의
비서실
정치에
생겼다
맞아요
IS
신념
모조리
##컨대
아이들의
현장을
상태를
어떻게든
웃었다
있으니까
물론이고
찾아가
##느니
비극
속의
느끼고
레드
몰랐다
완벽한
##참에
호구
유리한
##거리며
융합
미사
욕을
성능
##ul
##터테인
##교사
마음의
파티
현역
관점에서
치는
인턴
세계에
받으면
시정
##동맹
받기
##스레
한진
국회에
법무장관
서서히
적자
짐작
스케
##TE
##돌이
촉진
정당한
대깨문들
견제
같고
점에
##회장
안정적인
요구를
지지율이
지키고
2015
권리를
일어날
상처를
주요기사
책임이
포착
##시장을
과거의
##미널
피곤
장례
되찾
주한미
##면은
스웨
3시
시중
강도
법조
무장
##지말
##모습
김포
가볍게
당하고
뛰어나
시나리오
보세요
쓸데
높이고
이유다
##내려
대충
보다는
잠실
없던
중독
1층
00
##놈의
비로소
태국
##정이다
사용해
The
스티
협상을
크로
##하하
박수
윤리
바라보는
단축
않았을
규모는
정무
IMF
이낙연
공정한
공동으로
실시한
##인인
써야
무력
면세
##품이
##때문
나서서
##롭고
##맛집
##건은
나서는
정한
면제
이마트
##자연
서울의
##경북
정신나간
만들어야
전라
잃어버
##인사
예쁘
##졌지만
무효
물에
패턴
인공지능
뒷받침
##수지
이어지고
##학자
##해봐라
약속을
죽고
고쳐
##로에
##투자증권
과도한
지목
마찬가지다
성적을
타이틀
##반대
감축
작전
사령
속도를
탈락
마구
때문입니다
##속에서
서울에서
##추천
형식
증거가
##함은
##있음
발생했다
일으킨
##센터를
##PG
##디션
배를
##원전
마련했다
##니는
타령
대접
##시간을
오프
서명
삼아
허락
다녔
붙잡
이번이
인종
병역
자빠졌네
종전
김일성
떠들
침략
무산
불구속
매출이
##두는
##거렸다
차이를
것들은
가능성은
##후에
51
##황이
야권
무엇인지
##담당
항소
##버렸
시민들의
##포럼
##im
##협정
72
조롱
호응
선보였다
요새
머리에
##인터
에는
##희가
##설이
맥주
연구를
정신적
무대에
##고의
영장
노하우
영국의
낫다
일부를
##사령
계급
##화되고
때의
독점
원인을
1명
##다는게
거냐
##마스
##참여
장착
죽창
둘러싸
기본적으로
더구나
비판을
병원에
##됐으며
##히지
거리를
제시했다
만났다
있으므로
##나가는
##접한
마크
도박
노란
하더니
##드라
냉장
##소리가
역전
줄이고
앞장서
것들을
ㅂㅅ
소셜
애니
장식
멀쩡
##바다
슬픔
##투쟁
검사를
고객의
죽이고
##땜에
##일으
행태
##월한
##의로
중견
개발에
되면서
청주
##도서
위장
##더군요
나지
포르
어둠
골라
박물
##세상
기다려
인성
##친구
##으로만
푸른
30여
##기관의
관계자
일정한
##과도
눈빛
특별히
##아니냐
2회
해산
어머니는
아침에
냄새가
유지하고
주행
돋보
바꿀
어머니가
##졌을
##프는
읽는
해결할
횡령
전제
개발을
후보로
##하였고
문씨
있는거
것인
##보도
자칫
하나하나
이적
투어
숙박
과정에
로스
상관없이
알리
야외
바이러
건드
헌법재판
##000여
전광
상가
코미디
##중심
점령
사태를
제5
##출신
##파는
##구니
경쟁을
해제
경호
자기의
접속
욕심
넘치는
오토
하여간
문슬람
##했으니
무덤
아니에요
7개
수면
67
불만
6년
##90
늘려
##하자고
하여튼
일로
아베가
2시간
내려와
추방
준비하고
독립운동
올릴
##건가요
안하는
끝날
##달라는
등판
애를
추구하는
주민들의
바닷
미래가
##ce
##위원은
경향이
떨어질
식물
##반을
되나
가난한
팀이
##행은
원활
##란을
철저하게
생생
분야에
3D
어려움
##자식
재발
세종시
##싸움
7년
조지
제품은
대통령에게
진행되는
조명
인적
##저축
##아니고
전담
기준이
설명을
##청문
과정이
본래
68
드라이
판결을
##라며
이분
밝히고
PD
비행기
##놈은
##구멍
놓여
차원의
##감도
수소
건강보험
초등학생
저렴한
진작
때에
##22
참여해
리스크
까닭
했어요
##았네
맘대로
##하겠습니다
##디언
부를
자존심
타당
개척
중장
##화될
##FC
##보건
##법과
전기차
주재
계절
##버렸다
관리를
##체제
공개된
##동강
##들로부터
선포
##여성
경상도
부끄럽
아이돌
파기
사냥
##계획을
상태가
아파
8개
바쁜
참여할
##유치
숨을
일이었다
모래
##기다
##타로
홍어
##센터는
유용
알리는
##기야
인간을
이참에
것일까
사모
##우지
거리가
위원장이
별다른
시리아
##선과
높았다
##마가
##해져
나갔
##스티벌
##동네
##수익
수험
74
당국
수수료
드리
예의
1심
입장에서는
목을
더한
선을
합쳐
근로자
3년간
##ㅠㅠㅠㅠ
있었을
전체가
##파로
##면에서
##스럽고
욕하는
일하고
나선다
떨어뜨
아메
정하는
귀여
##타고
##스카
##종은
너가
2조
##주의적
않습니까
##거니
확인하고
유가
##었기
마쳤다
좀비
화물
등신
음악을
개나
마인
부서
마련해
##아냐
1등
복잡한
예쁜
수술을
제공할
지역은
있었다고
있나요
중대
충전
품목
회사에
##스케
지방자치단체
완공
면역
태도
풀이된다
과거에
원자력
##내서
100여
넘쳐
일환
추진하는
##사람들이
사서
말라고
##으셨
곳곳에
낭비
합리적인
내리는
있었다는
거짓말을
졸라
##넘들
되냐
##우의
영토
쯧쯧
포함된
세우고
IC
거울
묻고
직원들이
##었냐
메모
##세한
방송을
##유럽
소멸
##잘못
팀의
수시로
내외
얻었다
커뮤니티
사찰
소개했다
1호
##분석
방문한
익숙
##중국
청탁
##둥이
##인데도
텔레비
개인적으로
놀랍
삼성전자는
대개
땅에
빛을
그곳
억제
변호사는
##분양
탑승
싶어서
##림이
이쯤
##타워
없도록
사업의
힘입
제시한
##되었고
간신
정책에
계신
다행히
연합뉴스
유독
##가도
애들은
이수
오랜만에
위의
2명
신청을
##청산
##아들
눈물이
연구개발
즐겨
근거로
오르는
지역사회
시인
##시스
놀러
끝나면
시키는
전교조
##었는지
지경
한꺼
##돈을
피아
##공사는
##군과
관료
일본인
쉴드
잃고
코너
손해배상
##요금
##급여
##통수
4시
뜻이
나빠
3루
##거같
네덜
타임
소중
순환
내밀
살다
와이
모았다
잠을
영화는
동작
당첨
위탁
내보
예예
맛있는
##일의
줄을
앞뒤
앉아서
##아시아
대표를
돈도
62
없다면
주저
조장
##대전
##집에서
전인
가중
기사는
다수의
국내에
여섯
국토교통
불거
191
구조를
상무
챙기
##차게
직권
지도자
조종
시민의
##이지요
과장
선보인다
대통
명분
현재는
내비
비용이
대다수
##놈들은
##편을
다음은
줘야
중순
김연
안양
세포
한꺼번에
마디
##론은
마음대로
면에서
##협의회
꼽힌다
과학기술
지나가는
사무실
##생의
##점이다
##비도
어머
시킨
5년간
역사가
##하실
##트랙
가이드
##는다고
##방으로
장을
간편
##산화
계열사
##타는
출국
언론의
##공급
재단
이해를
경제의
전망이
##경의
들어선
이라크
##일뿐
학술
하겠다는
추진할
봉쇄
##속히
아저씨
##재의
가슴에
190
세웠다
뭐하냐
작가의
선거에
##행위를
##권도
해봐라
##즈가
##대도
##막을
##릅니다
한계가
##로드
##으면서도
실력
김제
지니고
##날이
살아있는
##전환
##값을
##복합
화를
경쟁이
갖추
##우기
이병
대표와
##마리
부러
국어
77
너나
##네들
컸다
일어나는
하나씩
이재용
개를
간주
밝은
##채를
귀를
유죄
개돼지들
##ew
수를
노벨
##골프
##상승
당의
의장
사례를
간단한
##이라며
이끌고
##주행
고스란히
결론을
신발
##이니까
발효
##입국
수호
##시청
##트롤
의사가
차지하고
##트와
포털
자부
출신의
대학교
##주의를
관람객
편의점
내릴
잘한다
외모
소름
분석이
막대한
##별로는
폭로
석탄
증여
서둘러
동성애
정신병자
##방은
높아지고
지나지
주머니
한동안
LG전
##으려면
이집
대국민
안전을
##op
양쪽
##받는다
패키
K리그
그런데도
##감으로
경기에
개인정보
패스트
두드러
약한
야당이
오만
비타민
끄덕
공원
뛰어넘
제출한
엉뚱
정밀
##마니
폭탄
위주로
득점
미루
돼요
버려
##이지를
합의를
김민
바르
상환
부정선거
##구에서
##확인
급등
##금과
크루
건강을
새해
엔진
특성을
개혁을
##동원
적게
순천
##치와
해마다
포스트
놀이
공동체
##위원장이
당시의
유형
산림
##투를
##물과
##공무원
##쓴다
있었기
고속
##통상
마르
전에는
국가에서
확실하게
본부
오늘의
벌인
작곡
사람으로
개인이
말씀드
##는건
##하든
진학
##상담
하수
최후
갈등이
이름은
조카
역겹다
변신
재능
호기
결심
쓰면
##유예
73
성공을
사회복지
않아요
1998년
민원
어디까지
##집행
지표
의지가
유사한
##나보네
가벼운
별도의
교육부
##NA
잡혀
패러
잠수
지고
병행
이라면서
감안하면
사우디
문정부
때로는
걸릴
즐거운
믿어
개성공단
같애
산불
##된다면
대통령도
##것처럼
위험이
무인
맞습니다
##간을
범위
벌였다
오피스텔
전과
서부
무선
손혜원
##명이다
관할
##업자
당신을
게이
나타났
논의를
##보복
이대로
적도
사용하고
공적
컨설팅
선관
솔로
명문
죽일
1997년
근본적인
하위
남긴
더욱이
##집이
##많이
##결정
그런거
않는다고
게임을
적립
##신도시
떳떳
짓거리
하얀
집계됐다
감상
내다봤다
이어진
군은
아시안
듯하다
맥락
##정지
1번
의학
숨진
저작
##인들을
##리니
1999년
##만원에
나누어
시키고
사람이다
##재인
##되거나
의회
3분기
밥을
##가다
자원봉사
진행할
명시
##데이터
CCTV
재산을
##보면서
##ir
사정
##파를
유니클로
##라시
이야기는
최소한의
돕는
세뇌
운전자
##간담
된다면
한겨레
##온이
대형마트
##os
MB
좋은데
##로워
##실의
진행됐다
수사에
##렸다고
##였다는
조세
##고속도로
행사는
반미
##내에
##드와
강제로
##이네요
##보장
스타트
통치
결혼을
곤란
##는거냐
기성
10분
##패스
스웨덴
해주세요
##적한
선거에서
의원을
##백을
##공헌
##하느라
88
##대한민국
경력
박탈
이벤트를
진행되고
전당
논란을
놀라운
즐기
전락
기간에
가전
여객
매니
##측이
기능이
이은
수렴
고성
과세
문화예술
편입
진중권
거고
같아서
##주자
시공
##거리고
해수
개학
악의
막상
우리나라에
입사
##취를
##졌습니다
지원이
##았어요
끌었다
문가
한결
나불
##어질
부하
두번
##리라고
##소설
세상에서
##부족
몇년
지원하고
짓고
재개발
충격을
드러난
##한을
지금이
조건을
학생들
##주었다
사면
차세대
탄압
##풍이
망가
누워
억압
이완
원유
금융감독
##있을
얻는
분산
임상
정통
##르르
표현을
이하의
될까
새겨
##스팅
##치다
점수를
삶이
있는게
들어오는
넘어가
오래된
수색
맘에
꺼져
했는지
때보다
많다는
##일세
이루어진
부총
교육과
협력을
경찰의
터져
필요로
만세
##폭력
고전
제품의
평화를
인테
유효
변화에
피해자가
소장
없으며
쇼핑몰
요청했다
##하므로
##한이
##수당
도의
##30분
##값이
초딩
가기
공평
도중
육군
##더냐
라면
##되냐
##드에
산책
버렸다
##르며
신경을
서울에
주부
대한민국에
##민을
나가서
##통은
##부담
저희가
##통화
미소를
##진한
24시간
법칙
믿음
않냐
##했었다
싸워
시작하는
과일
##길에
##받아야
표정을
##캠프
게재
다룬
무섭다
행사에
##사업에
##알고
세계적
창립
##MW
##시요
온통
김무성
##거라고
운송
택배
##리도
뷰티
내년에
집착
야간
줄일
##감사
비하면
##명에게
##35
정도면
힘입어
##적이었다
포괄
##업에
느꼈다
##바지
건가
시작됐다
모습이다
2분기
팀을
지원할
나타난다
##위원회에
파고
했으나
검토하고
하나같이
살피
인격
##적이지
연수
##근로
생각보다
불만을
앞세워
잇는
정도를
좌익
신종
##산업의
NH
선택한
찾지
편지를
##리포
역사상
사정이
손석
청와대에서
학문
목소리로
##bs
76
모욕
죽인
계시
신혼
자리가
##나온다
규정을
쫓아
##방향
구조조정
되돌아
민심
##우를
##리는데
##지대
로드
살면서
단호
공영
정치가
함유
##사들의
재료
##해놓고
##청원
황교활
블록
집이
밖에서
현안
##오염
기쁘
##세이
조금이라도
불확실
##게도
사고로
걷어
##오지
인정하는
갑작
예금
##셔널
연상
돌아다니
##메이션
경우에도
공사를
전략적
69
진화
##28
##인들에게
중에서도
유포
##현의
어떡
클래식
##과정에서
계란
문재인과
소프트웨어
후쿠시마
재직
##되나
금속
괜찮은
어마
주목을
인구가
한해
해안
젊은이
서울시는
주목된다
변명
불가능한
든든
가족을
아내가
완전한
600
##월드컵
동시
증상이
대항
나고
##봤자
출생
작가는
하는구나
자고
말자
바꾼
함께하는
마음은
여가
궁극
##장난
5G
남쪽
받아서
##시리즈
##것만
아들을
잡지
비중을
KBO
##기에는
##수입
##주의의
역사에
수단
광복
가져다
스튜
꼽았다
##즈의
소주
스크린
##걸고
##편의
##두를
##패로
받으며
데일리
언론은
이인
##교의
해가
3배
되자
나갔다
지난주
##지역의
맞을
처벌을
##협약
학교를
##원들은
더듬
##경찰청
몽골
##스포
##이요
가격에
기록하며
하려
안타깝다
출간
1주
언젠가
조선시대
미래의
앞으로는
이르기까지
##em
국개의
##께서는
활성화를
지나면
##정상회담
남성이
무대를
##꺼다
진행하는
아이들에게
않았다는
##니즘
나서고
연다
모르겠
##기금
대단히
경찰청
##자료를
한명
개념을
염려
모르지만
활동에
to
목격
##수엘
개선을
##렸는데
과잉
북으로
해줄
항목
실용
온몸
##차의
판단했다
##파의
스펙
이번에도
##공연
한은
사후
목적이
##리냐
애가
저딴
세계가
메이저리그
정상이
행동이
##00만원을
용역
좁은
##만원씩
달창들
영구
원칙을
##그라
그런가
지소
지리
##독한
##꾸로
요구하고
대상을
무더
##기업의
##단체가
도모
대구시
진행했다
##수요
흥행
직면
직접적인
남양
김지
##든다
욕망
티켓
손흥
##호와
바꾸는
권한을
정의를
주민들은
비공개
관련이
소규모
첫날
표정
##정권이
비유
했지
##갑니다
당했다
이뤄질
이씨는
선택을
자식이
##부처
죽이
종류의
##준은
결정할
250
##계약을
버닝
기반을
##드라마
커뮤니케이션
해임
최소화
##언이
나름대로
##사용
국제사회
국가에
##즈아
욕먹
##주의자
인문
##론의
##동생
감소했다
##양의
##강을
조항
표를
인정할
##세금
kr
##중에도
분할
가족의
##변호
최근에
두루
목적을
##꼴통
사무총
바둑
##민주연합
가족과
##니까요
신동
감지
내리고
워크
어렵다는
##전형
막는
여론조작
늘어나고
##개념
선택할
공정거래
해놓고
나라꼴
중공
성공적으로
##당하는
사과를
수사가
당뇨
만화
##홈런
##23
이상은
##미의
멀티
##27
누구를
학생들에게
좌빨들
순식
그때는
있겠지만
힘으로
잘살
줄이
##호에
않아서
치명
##열을
가깝
북한으로
거뒀다
##진보
적정
웃기는
고무
##하루
고사
환자의
주장하고
신이
##렸지만
나누고
##분들이
프로야구
한거
줄이는
표정으로
맡았다
스키
민주당의
공개한
##플러
천벌
클린턴
모금
##년의
여론이
##밀히
##마이
엄마는
지금이라도
유연
날카
참여를
데모
저건
자의
합리적
잔뜩
달린
차관
문제와
조상
##쳐먹
편이다
양념
엄격
부정적
강화하고
##업무
경제에
장군
##ap
##빨갱이
상승했다
유혹
대통령에
걸음
국가와
정의로운
김수
구조조
아깝다
면서도
거대
대표적
주둥이
참사
늘어나는
건네
어딘
이곳에서
실적을
아나운
##본부는
##경찰서는
좌파들
염두에
흥분
세트
떠나서
연루
##동물
##라를
방식이
##통제
말과
설치된
임종
논의가
지주
##약한
북쪽
맞았다
##회로
적합한
##미아
않는다면
절망
대비해
##풍을
손바닥
##공산당
중산
부들
##봅니다
여태
위해선
무뇌
상영
성격을
스탠
피로
비디오
##비한
납득
보라
장학금
하드
그러지
시계
식의
##미로
기획재정부
##간이
##만큼은
묘사
사회공헌
##아님
새삼
틀어
식사를
적용해
국정농단
소용
##임에도
##때마다
##혀서
방탄소년
##하는구나
김광
1시
잇따
인식이
##나지
회수
내놓고
안달
반응이
않겠다
아무튼
성폭력
소식이
연세대
패널
네덜란드
수차례
이루고
있어서는
휴대전화
노선
좃선
##인민
황제
기다리는
영향으로
여권
가라앉
빨갱이들
고구려
말입니다
제품이
##보게
##중의
궁금하다
이해하고
신축
그만해라
##할것
경유
주장은
구체적
##종일
##팀을
주류
영향이
하지말
거래를
마사
##부도
확립
지지합니다
제압
이곳에
국무총리
선수들의
##전부터
천재
것이지
ㄷㄷ
##출을
찍고
##과를
차량을
10명
등장하는
말레이
복수
##나네
저자는
##렸다는
정보가
##언을
##000억원
우유
리얼미터
화장실
##쾌한
미통당
인생의
베네수엘
김어준
있구나
증정
##로만
분석이다
바닥에
말하지
진주
스승
이런데
##로우
규제를
선정된
##크는
공안
##속을
유전자
느낀다
오죽
재생
##크림
꺼져라
모으고
피할
##PC
##하를
간절
생애
설비
배우고
가지는
배울
과감
증시
헌신
##카데
한계를
분들은
콘서트
연기를
펼치고
##시간이
##짓거리
착공
다닐
##급식
##산으로
흐르는
부모의
개인적인
##가에서
재검
여자를
##세와
내달
국민과
여성은
일어났
은폐
하시는
새정치민주연합
조리
달했다
인사청문
##청의
언제부터
상당의
일방적으로
사흘
##변을
이윤
무용
사람들과
##너무
박근혜가
##톨릭
무서워
78
공무원이
됐고
##점검
영향력을
주인이
아직은
수고
매월
##환자
##대기
글쎄
상반
인데
##채널
우리나
조사하고
역량
원으로
교과서
강남구
3분의
##견이
안되고
##디스
지적이다
##역사
비판이
옆에서
##왔는데
겪는
박그네
짓는
고객을
얼마든지
너희들
교육감
분명한
뭐니
진출을
분당
##크를
정서
부드러운
##중을
ㅇㅇ
3회
##21
높이기
마포
##통에
##크라
거둔
하나인
문화적
##훈은
##버리는
석방
##기보다는
느끼게
대답했다
후에는
학생들을
##동에서
##시키지
살게
실효
##26
민정수석
건국
음료
사라진
##교가
썩어
##판사
안해
안타까운
송파
날려
되돌
주먹
놈들은
1사
모르겠지만
입건
기업과
차려
시설을
필요할
수여
위험을
인하여
파악하고
##블릿
화면
평가가
누릴
파이
지적도
##편에
원장
출신인
##편이
##렸습니다
미성
기소된
##그룹의
싶습니다
미치지
##ea
##um
협의를
##린이
##하되
##협상
보고서
조현
비율은
운동권
##곡을
디자이너
감방
의원과
싱글
하네요
참모
듣지
##디아
성취
현황
##있다고
정성
단행
댓글을
탄탄
##졌는데
##임대
FA
업체가
장면을
주변의
들어올
##29
맡겨
##였을
##치한
3위
어우러
삶에
##하는가
비추어
심하게
##개입
모델을
의외
혼자서
##지주
##피를
5분
한방
##지역에
수록
지킬
자신들이
아랍
나한테
합작
##질러
##거를
규모를
갖는다
영화의
문재앙은
이언
안쓰
##레인
최대의
제안했다
하는가
방한
마련한
인정한
처음에
확인했다
두번째
민족의
바른미래
박지원
차고
##드려
지었다
아래로
작품은
해킹
서울중앙지검
##미한
신용카드
국적
##방법
메인
##했음
제1항
##IS
국회가
세상의
##양은
언급한
유지할
의원들이
고려대
##람회
총장은
돼야
배터리
반환
##폭탄
##합니까
들어가서
자신도
해결을
침체
##규제
행정부
김경수
이례
##담한
##되도록
없었고
해야한다
##이용
높고
길로
##하다니
현상을
날짜
상한
##kg
예정인
숫자
어머니의
펼쳤다
##었으며
나이에
물품
AP
##래요
만약에
행사가
남이
##하구
증가하고
##방지
나타나고
불러일으
인식을
써서
##알바
##루션
발전에
나서야
선보인
들지
방침을
증거를
되었고
##하지마
##한지
##리조
##공화국
##방해
##치도
대출을
에게
기업들의
구원
대구경북
급격히
번째로
우려를
억지로
보수가
소신
##왕의
여자의
수업을
중대한
교황
2번
병원에서
마이너스
신고를
관해
조사에
사실에
##으시
이니
민식이
지사는
높일
기뻐
필요성을
본회의
남겼다
일일이
마산
##업이
여지가
##잡을
##슨은
서술
그들에게
이정도면
##일도
문제도
겁나
순으로
할아버지
나타냈다
##준이
##훼손
당하는
순위
확인한
다르지
이르면
이런게
파란
하나다
##심판
1분
친북
전국의
3명
그다음에
##터가
##ers
강화를
길은
##중이다
다리를
수신
##환은
##작가
관계에
좋아서
##하진
돌아왔다
정신차려라
영원한
잘해
것일
쓴다
밤에
정원
##현실
트레이
열릴
딸을
지식을
지네
치유
기간이
이메
투자가
빈곤
핸드폰
자신감을
일할
어려움이
사항을
강아지
추측
플라
세련
그쪽
견해
##목적
현실적으로
##받게
성사
##때가
판문
대학의
##전시
2014
태평양
재현
##토론
##리던
##인이다
##oc
세금이
관행
미국으로
거세
않다고
윤석렬
맞는말
소문
선거를
믿는다
도약
손실
바꿨
돌아와
강력하게
일당
디스플레이
전술
다닌
##훈이
소홀
200만
##아트
의미에서
삭발
커플
현실이
유학생
유럽의
##만9
짜고
답을
마누라
##선생
##터는
대학에
김병
입으로
역설
혈액
##교는
사망자
우리나라에서
문재인을
공지
##님께서
상태에
얼굴로
싸이
이후에도
적시
소감을
하려는
되어서
이들에게
받아들일
대주
토요일
##떨어
되풀이
하신
##화해
못된
그로
지켜야
사물
오세
주무
원에
전쟁이
주위
월세
##련의
이명박근혜
##원들
비중은
부합
유지하는
낙동강
한걸
##ec
중앙일보
##있으니
믿지
적대
차로
##교과
권위
그러는
매력을
배정
판매하는
같지
모르나
대부분은
모지
폐렴
##한것
무거운
심어
##못해
글이
표명
위치를
타협
그리하여
##ess
싶으면
유망
입지
자영업자
##사람들은
초고
소극
##명에서
##일보는
##밀하게
지원해
비정상
일으켜
온다
불필요
배후
##환이
98
과목
제6
##일수록
##하나요
팔고
떨어지고
##화폐
너거
정직
고추
하도록
##서비스를
##지네
왕따
##씨도
드물
##더러
박살
정권에
##보이
##사리
왠지
##새가
상하이
##반도
준비가
타격을
3번
지겹다
##걸이
하지마
골든
그네
부풀
##맞은
##진에
##기술을
단위
관절
당대표
화합
순식간에
안동
정보통신
견디
잘못이
시켰
맞춘
선정됐다
부근
연평
만나고
것이기
##셨어요
##나라가
회의에서
하나만
공인
용의
되며
탈퇴
우연히
피의자
위성
메이크
출장
##어링
##하게도
뭐지
##씨에
노동당
##차이즈
일고
신생
하겠습니다
중국몽
이듬
##플루
현대자동차
주유
제로
가능할
많습니다
배포
신제품
하려면
자유당
권력의
##됨에
##급한
공주
예정된
배송
버리는
##지는데
마녀
장수
이의
##기관이
당이
포럼
임진
##프가
말레이시아
타자
속도가
##놓았다
8년
교섭
손잡고
불편한
기사에
면허
##페라
##IC
좋았다
발목
5억
인가
청춘
듣기
그대
저를
##브를
부끄러
데서
어울리는
무소속
##왔고
간섭
중요성을
20만
##되지만
눌러
법은
사라져
치우
물량
안들
역임
##해야만
김원
의정부
야생
고객에게
불렀다
##와도
상용
61
측에
입장에
##향이
##수술
##온은
찾아볼
제휴
발견된
슬로
대우조선
의류
않았다고
신화
슬프
신도시
타이어
실력을
가까워
##래기
확대해
망할
죽이는
양의
##레이션
수확
##계층
컨트롤
선거법
##곳의
내각
86
섬유
너를
바라보고
엉망
##북한
119
##찰을
내놨다
식량
손해를
지역경제
늦은
법의
검거
##본을
맺고
없애고
조직을
물러나
##정도로
##담보
귀가
##제공
##부들
일삼
조사에서
확인해
엇갈
시기를
##회복
청와대에
##여대
칼을
##자격
제국
이듬해
일산
이뤄지지
##차량
싶은데
##상한
##과학기술
서울시장
전설
결과적으로
출연해
참여했다
인간들은
블로그
빠졌다
##운드를
군의
##원들의
##줘도
선행
어긋
주어진
알파
친절
운영을
못하면서
실태
##계열
추산
녀석
##왕이
완벽하게
동서
고립
원인은
추첨
##량한
우습게
먹스타그램
##유공자
측의
##기반
##기소
곳곳에서
나만
지극
허구
나대
##통합당
##체육관광
스프
끼고
책이
여성을
프랜
안녕하세요
치솟
아름답
tv
##하곤
거꾸로
성격이
기간을
이뤄졌다
ㅅㄲ
##이트를
##고와
##겠구나
문화가
어두운
필요는
##처가
버닝썬
종업
없어도
의도가
##상이다
##홀에서
3연
피를
단백
말하자면
체력
##라스틱
##커녕
공간이
경우를
##두로
한복
가슴을
준비하는
인근에
임차
대회에서
에어컨
##대행
##DP
국경
부부가
부른다
위생
말대로
크지
명심
진행한
상주
명백한
줬다
상향
일상생활
순수한
##시도
더더
지났
79
##bc
한국당은
##숙이
죽어나
유감
비하
피가
##되던
농산물
##배가
##회계
##간첩
##질로
탈원전
팔을
중국으로
중간에
##내용
시에
##측의
##리우
들어왔다
것이므로
싫어하는
CN
50년
만나서
걸친
##원인
##철이
BMW
조사해
##매가
##문제를
##절로
알았는데
차이나
##아주
대한민국에서
끝나는
만하다
시간과
##좌빨
이데
상의
시작할
자신은
엉덩
한류
정해진
드러내
회피
파면
밥그릇
예컨대
낯선
빼돌
도덕적
진로
녹음
휴식
동행
이순신
끝났다
교수의
한국인이
동아시아
위와
##자들에
화해
지방의
근거가
하늘이
##공학
##안되는
동화
먹여
한게
집행유예
북부
작품이
##가자
##인척
##하우스
스위스
전통적인
IP
교육의
##집은
계획이
##질에
kt
##님과
전국민
원이
범죄를
신형
##모로
운항
##인력
##못한
전체적으로
정경심
쳐먹
짜파
고등학생
50여
반짝
공장을
문재인의
웃긴
구석
주간
##han
시민이
국가안보
어깨를
##었음
현실은
##모임
남는
속에서도
안됩니다
5대
진행될
##됐을
##매도
결정하는
발라
자화
##롭지
먼지
감정이
##처는
2인
나가고
재판을
##보유
조폭
아이디어를
관리하는
##공사가
대책이
##영웅
넘나
##제도를
광고를
83
모의
속도로
세력이
터진
##책이
##ra
걸었다
프린
돌아갈
##학기
##눈에
생일
##모는
오르고
##녀가
같네요
연일
그해
문제점을
전염병
##르다
100년
오십
전무
와인
그런지
##들보다
여부에
좌절
LED
##포먼
싶다는
이승만
이가
co
평소에
역사는
라이프
생각한
독일의
성별
빌딩
이래도
수혜
아니라면
꾸며
귀찮
로맨
결정적인
##적이며
넣은
벌이는
감옥에
확대를
##아야지
전반에
불이익
##의의
##당으로
##역으로
##규칙
보고서를
그만하고
집중적으로
자신과
종로구
마냥
도요
할줄
지점
현대중공업
방송에서
독재자
##산과
최우수
생각으로
콘텐츠를
학살
언론사
더러
떠났다
손이
일요일
동조
트럭
이만희
##격리
내주
해준
##광역
본사
타는
##력발전
일제히
고양이
##막이
##기부
##국적
액션
참나
##우며
걸리는
지키기
편지
고맙다
적법
고마워
전국에서
##대학원
##순간
어딜
와중에
민폐
##대회를
직장인
기업들은
두는
연동
이후로
자택
부디
읽을
##사상
고조
##마스크
##5천
##연수
##는지도
##오를
알렉
소비자가
고민을
손상
##앞에서
##개는
넘은
미흡
흡연
과시
금액을
지위를
광범
##cm
마스터
##프리
깨어
##초를
##어마
뮤직
##행동
지사
##움과
묶어
영화가
##져도
크림
##ram
점수
꼬리
고시
자유로운
##달러를
비교하면
1990년대
이내에
##레일
##주얼
낡은
장성
전제로
제기한
나라로
정도였다
안하면
기자간담
해주고
아들은
은근
분석을
이용해서
또다른
이준
##문에서
줄줄이
외치는
ㅋㅋㅋㅋㅋㅋㅋ
주장한다
##계에서
덕분
##되니
미개한
##방안
길거리
멘토
안그
##삼성
할말
플래
후보자는
##범이
상대가
업그
늘어났다
하락했다
의미로
어때
생기면
지원한다
##체인
문서
반납
##까지의
대표이
축적
조회
##불을
##변화
대중교통
문화의
피아노
##이야말로
꼰대
소득주도
##방위
IB
바가
될지
트럼프는
분석해
자세를
용기
제7
##건설은
나라망
노조는
국익
유의
튀어나
보입니다
경제성장
##쳐라
##주니
##되었던
##바이오
배웠
야기
역할이
이석
삼십
서버
##푸드
##등이
성명을
투자자
커질
눈앞에
거품
정치인들
못해서
##학년도
##초등학교
##대회에서
정치인이
조국의
뒤에는
##전히
예산이
지붕
기회에
##롭다
##덩어리
애니메이션
무엇보다도
인쇄
사진이
방안도
관념
##시나
##보드
6만
##론에
당당하게
접목
되는거
##때부터
시를
발간
실어
재고
실패한
서로를
해외로
##러가
일일
##직자
떠나는
봤을
1995년
##선수권
테크
##마에
##학은
문제지
요양
리스트
역대급
올해도
이루는
##였으면
##00억원
아빠가
비공
뻔뻔한
4분기
골드
GM
죽어도
##체적
농림
외무
나뉘
생긴다
##ie
돌이
목표는
주한미군
불참
살아온
여자들
요구한
##듯한
못지않
대여
당국은
부회장은
##판에서
##동조합
##았나
손실을
김정일
##보에
후에도
대의
의원들은
덮어
관계없이
130
##안에서
만만치
만성
주소
체감
발로
묻자
과태
##장비
시집
##고생
##방식
##어졌다
공군
김학의
소음
감면
서로의
##2000
부회장
아사
뭐든
세균
한양
달라진
추세
##대요
나머지는
그러게
어쩔수
전지
다음으로
정시
살지
마다
다양하게
##th
담당하는
안됨
내기
어렵고
자사
전액
수의
등산
##전문가
시술
크기
##열이
성실
따르는
산정
배경으로
생산하는
자식들
1년에
지지자
의식을
망해
##퍼스
스스로를
보여줄
##는지를
파헤
하는건
중개
##학이
##아무
87
일베충
##기업이
##올라
홈런을
금융당
고의
민주주의를
##셔츠
성희
소집
##박스
하기도
##45
양자
달콤
페이
길에
##청을
차분
##퇴근
당신들
정치는
개돼지로
하천
JT
그러냐
파탄
##마냥
이외에도
##사퇴
전국적으로
바꾸고
15년
대고
검찰을
퍼포먼
##취급
튼튼
정부도
나누는
##전용
재판에
빚을
명복을
나눈
비웃
수강
전격
##리라는
상대방
도와주
급식
박주
나타날
깜빵
40여
일환으로
깡패
스파
요구에
삼고
##었으니
가지가지
##베이터
백악관
지분을
카드를
##학원
사건으로
되었습니다
##새키
신천지가
밀어붙
그렇기
레스토
배우는
남자의
##창조
강정
겪은
##하더라
쉽다
##교류
범위를
소대가리
##하시길
##NG
오사
내년부터
대치
##돈이
##한테도
무작
잘못한
##경기에
##정권은
가득한
1루
##무지
미성년
하겠다고
달에
제외하고
정상화
강조하는
기자는
은혜
##트에서
##금액
포함돼
이동통신
##사무소
별도
##하겠네
##문으로
양극
송도
##장치
재해
심화
##순이
간판
##od
인터뷰를
입술
기존에
노력하고
해외에서
##못하는
##위원회에서
전임
박사는
##정하게
국가는
국제적
##놓을
##💙💙
휩싸
예상되는
##하가
공화당
참가한
출신으로
중부
일간
요인이
작업이
바와
청렴
회장을
실적이
##해야할
메달
지역으로
빅데이터
바람을
연료
배고
희망이
비닐
다루는
이익이
##주의에
##넣고
열려
##시설이
저의
##자리를
##부인
##계와
트로
포도
법원이
보네
선수는
방법이다
##있던
후퇴
잘한
바뀔
풍경
##회관
내용에
##보라
##자금을
개소
화폐
##브라
정책은
발광
##키스탄
싸게
어리석은
편이
##프를
##유지
의무를
민감
대지
힐링
외출
##ter
9개
상승세를
삭감
일곱
나경원이
끝으로
먹기
##업체인
삼성물
걸렸다
지나친
96
##그룹이
상식적으로
거리에
##발표
고인의
비트
##더라면
3조
권유
애비
##올로
건물을
불량
응시
수험생
##층은
마련된
입에서
##근무
위헌
번씩
##봤는데
##객이
주둔
토끼
##마디
전달했다
백두
2년간
발주
게이트
##리포니아
티비
떠올랐다
전국에
애기
대응을
웃으며
파렴
##시켜서
##탄핵
##별한
##문화가
정책의
가즈아
것이냐
##묘한
영등
##갑을
여당이
매출을
탁월한
##권으로
포트
늘리는
세입
##00억
외신
데이터를
for
법적으로
각각의
##비율
10년간
인지도
노력하겠다
두렵
다큐
엄청나게
사라지고
여기가
일어났다
4강
##자한
부도
차이는
##나도
오프라인
성희롱
나중
##들이랑
성적이
적폐청산
규명
##가기
홈페이지를
친척
불과했다
##보조
동북아
되길
##님께
습관
관련기사
있거나
조선의
##금에
불륜
우익
악질
유산
##결이
시체
발병
##계좌
담배를
남해
나타내는
##가가치
태블릿
##데요
##랜드는
토로
좋겠습니다
##이므로
지침
##소재
멈춰
반찬
핑크
책임은
어느새
포토
승부를
프라이
휘둘
금강산
정세
여긴
모여서
##수있는
모니터링
추격
의장은
사용하지
움직임을
충실
##학회
##없으면
활동이
벌여
##일지
선물을
40년
기대할
보소
고래
댓글이
##호로
2사
들어간다
##겠군
##FA
스토리
##재정
성형
맙시다
##현대
판매를
1년간
민주당과
되겠다
##등한
미뤄
있긴
법에
##ov
추진해
제임
##용의
학과
1로
최경
양육
제안을
분담
폭염
달러를
고가
면담
##보안
검출
매출액
보행
유재
요약
자연의
불쌍하다
주시
푸드
##정권의
71
조율
먹지
##증은
울고
아랫
일각에서는
밀고
명확히
하이브리
빠져나
아산
떠들어
2012
어쩌다
끼어
않겠다는
파주
##일랜드
파격
##쿼터
##포로
현실에
나가야
표현의
까다
##매국
집은
대상은
여는
가산
재미있는
분기
장병
못살
시발
도서관
실시하고
진압
누구보다
최고경영
300만
빨라
시점에
##소통
않았습니다
돌고
체제를
##거네
덕에
살림
##교도
##라는게
##질은
##마의
김씨
##실장
##수급
형평
##모르
아부
발매
##어와
여론을
97
##색의
세상은
##법원
추정된다
며느
##라라
##르몬
##겨서
실질적으로
경남도
통산
번의
외치
82
##만하고
##철은
억지
획기
##스도
뚜렷한
효과적으로
행운
##출산
해운대
자회사
4천
이용하여
소매
매출은
세미나
##사업의
들어가면
자발적으로
개무
파산
주신
##없다고
남편은
차명
하는것
##터테인먼트
##팀의
상정
##라우드
이사장
전신
가리지
불꽃
결정에
대입
89
북한에서
바른정당
인명
##주의가
##아를
4개월
넉넉
어쩌고
SM
프랜차이즈
##등에
##제재
입력
노조가
##말라
네이
##끼들
군사적
각자의
얘기는
화제가
안좋
책정
매진
싶을
절실
쪽에
ㅈㄴ
준비한
농담
납치
자를
##부품
학생은
광명
그러다가
박찬
마당에
음반
제도가
나오는데
##보로
손석희
캘리포니아
##해준다
이화
산업의
투자하는
##게는
기증
##기인
일부는
박수를
머리카
쥐고
자랑하는
ㅋㅋㅋㅋ
##위반
##닫고
했더니
인정하지
같음
아버지를
너희들이
벌어졌다
ㅠㅠ
유인
##는다는
LH
시원한
인테리어
1990년
##타가
민감한
아스
보전
##루를
##아나
부당한
휘두
도와주는
에너지를
아트
500만
책의
차별화된
있잖아요
##광고
아리
##ong
##맞고
사망한
병원으로
어마어마
##리케이션
사각
장관을
지나가
##는지는
##교육청은
60대
##31
포기하고
ㄹㅇ
계승
##명령
밝혀졌다
조합원
안정을
##니를
저능
100만원
단말
어케
문화체육관광
이뤘
위법이
##사항을
##문서
##이거나
레스토랑
##대교
환경에
강동
중계
통행
인원
하였
모델로
##해운
폭락
된장
효과적인
인건비
문어
안겨
##못하고
##사나
소설을
불펜
캠핑
주된
##베르
무책임
시위를
보충
배급
1일부터
지금처럼
명목으로
미용
한국전
쌓여
초월
엉뚱한
##형에
SU
이사장은
도출
3학년
않으며
전월
페스티벌
##연구원은
##례가
JTBC
##TX
돌아다
신년
맑은
제품에
행위가
##브랜드
가방
국고
강조한
자동으로
개시
형식으로
군산
얼음
패거리
꿈꾸는
놈은
##였어
##았어
자율주행
##째를
설레
안을
벤츠
세제
이렇다
끼리
식구
여기까지
아는데
금메달을
몰락
얼어
94
##곳은
가해자
하루빨리
부친
부유
개개
원가
결과로
##심에
##혜택
행동은
오스트
베를
내어
이제야
앞당
##폭이
보험료
알리고
블랙리스트
곳도
##고용
보강
반박했다
강화하는
4억
전사
##봉을
부착
##었으나
해결하기
St
이유도
콘셉
##발의
트리
당원
정황
영등포
##구성
##테이너
해설
##는다면
21세기
써라
##면허
적혀
되니
행위는
##ist
조치가
한국당이
##오픈
##스바
돌아오는
그나
되겠네
조직의
살면
벌어지는
대학을
입이
극히
##버트
부의
개념이
##저런
##습을
긍정적
남기고
플라스틱
##지던
해외여행
##들까지
중학생
##점도
공론
최적
감찰
무의
뿌려
아마추어
탈당
프로그램이
당시에
취향
플로
나라도
안나오
장면이
반해
밑에서
최상
악용
##실과
열정
##페이
발표를
미소
욕하고
언덕
우리나라도
부른
싹다
문득
##만하면
##내가
지금부터
쓰기
시국에
1996년
승인을
죽어라
##과정을
서면
버릴
상을
등장한
뜻으로
##슬러
보고도
통화에서
발탁
##마저도
브랜드를
활용하는
무너뜨
##중독
봤는데
낙찰
움직임이
허가를
이세
##보상
하던데
주장에
이색
##인증
강대
금융위
##진으로
작가가
되니까
몇십
조사가
약속했다
시즌을
DNA
원망
안성
2학년
1980년대
이곳은
망하게
이거는
브로
징징
시스템이
##영상
회사에서
##적도
허허
성분
##수출
우호
세일
새누리당은
너무도
LG전자
##자체가
즐겁게
##것다
##분열
##트라
OE
몰라서
##주차
이원
##동과
질의
때문이라고
그토록
살이
살던
김주
침입
법과
약을
천주
아파트를
조언했다
만들지
딸은
균형을
암튼
##티나
관계는
일자리가
##쉽게
위임
한중
초기에
좋습니다
의혹에
반면에
환경이
2개월
##없는데
공존
반가
병원을
##체계를
##배는
시세
양이
##회사의
당할
판결이
기숙
##드릴
성공적인
##거죠
여자들이
1대
돈만
##캐피
##제작
여학생
##애들이
지령
##박물관
##운다
우리국민
불투
이러다
##수다
싶어요
첫번째
선거운동
사항은
##국장은
했냐
있다며
핵심은
속을
민경
##기관에
불렀
정준
존재를
##관계에
청와대와
##ke
##국장
여성들이
##개에
생성
방안이
퇴임
따르
강력히
안락
소속사
제기됐다
4번
미투
다니고
단어를
사람에
이어져
조건으로
방영
도착한
국민적
정교
당신들이
작성한
교육이
사교육
##사업은
사용되는
야당의
실정이다
##놓는
안한다
##위험
슬픈
##린다고
추출
관심과
할일
##역은
합성
크리스마스
선별
##문화를
##만8
명예훼손
동결
더민주
##고요
대가로
없어져야
제기되고
##님도
막아야
과정은
선수들은
북측
키우고
선호하는
누나
##태가
답변을
인천공항
디젤
제2차
옹호하는
부상을
##매김
만기
뿐이었다
##란이
해명했다
정리해
비전
##조차도
늘리고
##네트워크
만찬
유니폼
그랜드
사법부
주범
KTX
명령을
이룰
생계
그리스도
결정이
##정보를
같으면
한전
##회말
꼽히는
12시
최우선
아쉬운
베네수엘라
몹시
선생님이
중복
학생부
안주
##자라고
##시작
확보한
소득이
기업인
대회를
이어갔다
텍스트
시민사회
판단이
그다지
##납니다
##협회는
선언했다
부인이
##도미사일
차지한
3점
고맙습니다
##시네
시점에서
국개
##방안을
저소득층
퍼져
잠정
의미다
원주
수단으로
하기로
김문
빕니다
망신
안할
나랏
93
겸손
법원은
불만이
In
못하도록
불가능하다
기록하고
뉴스를
MC
자리매김
속속
##일베
잉글
인스타
개뿔
의미하는
행복을
시험을
소리는
체류
이밖에
##년은
준비해
글쓰
이사람
위원장의
여기에서
##능력을
왕이
추신
급락
##아프
확대하고
##아니다
##하노
전복
대안을
발표된
많아요
지시를
보태
던진
##면의
불황
어처
공식적으로
##부르크
규탄
사라졌다
위해서다
구름
임용
콜라
##표는
퍼트
한사람
##되었다고
맞물
과반
장제
가다
있잖아
것임을
2010
##소나
실리
골을
방북
휩쓸
##테고
있는데요
##뉴얼
##티스트
기대가
권력에
##안과
하향
말투
##들지
최하
##발로
종일
LA
대피
고용노동
분명하다
일반인
##석에서
톡톡
##인트를
##크가
##듣고
##하던데
불과한
##어머니
듯했다
신사
##동으로
800
미국도
예상했다
치즈
던졌다
제재를
좀처럼
##론과
음주운전
##기간이
있습니까
남았다
플랜
심사를
##ab
##200
그딴
멈추
##OC
시행령
본능
아닌듯
동아일보
소재로
시속
##100
적을
처먹
##으라
안전하게
##나니
협력업체
뽑는
##기본
전용면적
제기했다
못차
사나
항공기
##길로
학생의
##버는
##코스
화제를
지소미아
내용으로
##공제
##감치
광양
상대를
다문화
로비
있어라
살리
##토리
자민
춤을
지역이
##직에
그보다
재검토
큰소리
동구
안되지
불공정
의전
##줄을
189
내세워
버리
##살인
##모델링
##시행
##어서는
되살
마늘
수치다
이새끼
##속의
주자
설명하고
공고
막걸
날씨가
대조
볼넷
자기를
##시위
사랑이
일본도
직원들의
보람
##보니까
사이로
구성해
거칠
스타트업
대권
같네
##결에
속하는
압수
##조제
신경쓰
소문이
진짜로
재앙아
피부에
힘들고
US
금리를
제고
밀집
유럽연합
암살
아르바
형이
##군사
1994년
##되는거
자료에
개발해
관중
합의했다
##부부
복용
죽었다
금융위기
헤드
##빼고
국채
심각하게
제이
목에
김영삼
정치적인
##불이
2연
광우
이어진다
원조
우회
##제품을
##지수는
##르의
개관
##버릴
다하겠다
떨어진다
##십시요
전력을
##차고
##남도
시선
언급했다
다채
웃는
실제로는
달라는
내려오
투입해
##분께
##DI
다같이
인력을
꼬집
세금은
##린다는
##록을
##다니엘
##데스
오락
드래
외곽
사업으로
2명이
동원해
사대
퍼뜨
##글로
됐다고
##여름
박종
표기
삼국
비틀
##하십니까
##맞는
110
##오가
논술
##유산
날뛰
##애가
단정
##프의
잘난
무릎을
있네요
신장
폭넓
러브
##있습니다
##증으로
미드
폭등
기자들과
보아야
준수
단위로
인재를
##쳐야
##하겠지만
시비
막판
여유가
종식
##잖은
프로세
아이디
열면
2013
관측이
맺은
ㅋㅋㅋㅋㅋㅋㅋㅋㅋㅋㅋ
##인터넷
번에
감자
알면서도
마스크를
기여할
##타자
모습에
업그레이드
##하는거지
바에
##훈련을
1000만
##란한
존재가
주방
##하늘
관심도
참여하고
##끄러
들어서는
##데로
차에
자들이
본인은
확률이
설치해
달래
##희의
법인세
1위에
이보다
##줄알
##찌감치
특정한
줄기
가족들이
##효율
##방울
오사카
##ail
##카데미
거기다
조센
##겠소
낮춰
니들도
##유통
정상회담을
달리는
하자는
있었어요
드림
보이며
남편의
수만
##준다고
기자회견에서
득표
영역을
설명할
상세
개인적
얻기
##위원장을
##해봐
발언은
참조
남자들
FC
라면서
모든게
일만
했어
##시스템을
르노
##경기를
30만
환상
거래가
##민과
##ㅜㅜ
지극히
##구도
방식이다
대략
문죄앙
칼로
육박
##지역에서
이고
정유라
감독을
신조
##코올
제어
공권
##네ㅋㅋ
50만
##적일
고난
지난해보다
소비자의
가뭄
사리
대부
불리한
떨어지
노골
근본적으로
예로
지긋
족속
김승
행동에
출마를
##아아
##소서
도시락
수감
현실이다
주문했다
##드니
##갈등
전적으로
임대료
염병
##심으로
제네
어떨까
##문과
걸러
하느냐
증거인
##밀리
씨와
대통령으로
엄격한
존재하지
지원금
##학규
상담을
200여
유흥
삼성의
봐요
이런걸
퇴진
일선
살았
걸레
스코
##잔아
##할려고
##자찬
의원도
소지
사생활
##음으로
##매는
거라
돌렸다
##저가
떨고
활짝
사건과
취한
싫으면
야당은
집회를
확대할
결정한
원리
데도
실감
편향
되는지
같냐
공범
기업으로
니네가
##임에
##석과
재활용
##인상
박성
맛있게
##내면
##스타일
방금
저걸
테니
##and
안희
##채권
일본군
불안한
탄력
포함됐다
발견됐다
##퍼런
이기적인
##바뀌
##까진
##어촌
여부는
모두를
않은가
싸우는
##연합회
처분을
지상파
사용자
빛이
좋아할
하노
##도안
음모
도시의
떠날
때와
이해하는
저가
넘들
누리꾼
##입고
모자라
5배
찾아야
올해부터
마련됐다
담았다
없네요
쏘아
그치
사시
발표할
강조하고
노동조합
##장애인
부모는
##심과
한국경제
어색
미쳤다
food
##백만
대마
서식
당을
프로젝트를
선보일
##체와
팬들의
무단
서민들
품고
개장
##급을
앉은
문이
##조한
모른다는
말로만
노는
여러가지
##안정
##거부
원내대표가
증인
고개
##역의
실수를
역겨운
관리가
민낯
##왕은
##시키면
광주시
받았고
댓글조작
넘기
##했을까
##몰이
돼서
##드린다
##타수
이상하게
##농구
##공이
##주식
아르헨
교훈
수송
늘리
검사가
국회를
받았던
낳은
LG유
걸리
걸림
##편으로
아이스
평가다
일들이
가족들
법령
알기
비판하는
정신과
수분
리조
낳고
##하였으며
이데올로
낙하
학력
재미를
마이클
가죽
쪽은
##들에게도
가축
스트레스를
인스타그램
모르냐
##불가
심상정
마르크
리모델링
통일부
조짐
##인지를
쳤다
##차도
보호를
출퇴근
속한
##격으로
##ac
대상에
##두면
##구속
주전
느껴지는
농구
감동을
공개적으로
둘러싸고
##도어
신속하게
학교가
먹고살
기업들
척추
이후에는
안되면
하라는
극대화
성명
##말에
얼굴은
마련이다
##을듯
표현이
1학년
내란
능력도
##신용
비난을
##시대에
자세로
시작된다
기억을
해봐
그곳에서
##론가
집합
바뀌었다
애써
마시는
3층
윌리
대표이사
먹어야
##하기만
문재인대통령
##실점으로
1980년
사직
천지
##래를
일과
경북도
백신
거주하는
미워
페르
불필요한
내뱉
##졌기
운영에
자격을
정도에
##항에
범행을
대학원
버튼
선수를
펼쳐진다
높다는
연결하는
##퍼센트
4명
봉사활동
찌질
때만
나라다
밀양
각기
망설
적당한
겁니까
놓인
GDP
뭐하나
##결제
챙기는
억울한
전반적인
총장이
앞을
사회는
신선한
반갑
140
구속영장을
어딨
##리에서
비율을
폐업
자녀를
두꺼
장관의
##만6
노르
성숙
날을
계층
흑인
##함으로
꼴이
사업자
대선후보
##파악
3명이
찍소리
##ity
걸리면
##보소
이끈
##55
인천시
##떨어진
꼬라
민간인
자립
감소한
영세
니는
경찰관
초록
역을
이어서
##빠리
비겁
열쇠
시야
산출
저하
많다고
##수호
권력이
관련해서
생리
더럽
##화장
##비드
##병으로
감안해
취지로
걷는
##타이
학생을
한숨을
인내
하겠지
##남용
커녕
일으키는
했으니
극심한
라이브
방에
##stag
지키지
##하잖아
존재한다
##과세
자기들이
하더라
꼼수
##속한
비열
안의
번호
##자문
벗어나지
##음식
줄곧
##기계
마련할
적화
좋다는
용납
##제일
전도
평화의
기준에
쫓겨
친구들
대표로
촉촉
##mm
나눌
전송
경기는
##졌으면
가톨릭
커졌다
자금이
##만으로는
아내는
##게이트
##선택
##것같다
타입
하든
과천
소금
내놓았다
쓸데없는
용기를
유료
년간
성장할
말이냐
전광훈
생각이다
참고로
보조금
모두에게
프로그램은
이어가고
회장과
##나온
##틀딱
할머니가
동계올림픽
공제
그랬다
모험
프로그램에
다하고
시기가
합의가
이끌었다
아침부터
위치에
작년에
가져야
##tt
승용차
##ns
##000만원
피부를
명확한
##려도
민심을
악성
##사업이
작작
일괄
속보
해를
##머스
로켓
실은
해당한다
원인으로
자화자찬
th
표출
어쩜
##IP
우대
##셨습니다
##열에
소비자들의
새마을
훌쩍
##적폐
##타이어
##색으로
##있다는
##진영
처음엔
수성
긍정적으로
확인하는
동의를
마운드
재인
처한
##말도
스튜디오
심리적
##독립
##싫다
노숙
차량이
국무총
개도
패러다
사정을
20분
바꿔야
남지
피고인
##디자인
소리로
주변에서
저축은행
애매
A씨가
##업체가
거리는
복구
측면이
근거를
가짜뉴
바라보았다
추상
시간도
소상공인
코로나로
데이트
끈다
##기간을
놀란
이제부터
##당할
보러
활발한
지금껏
결론은
##원칙
##마토
##충들
했으며
오버
##병에
생각만
디자인을
부양
##혹한
마법
그분
호응을
왔는데
##없지
양식
진동
원칙에
휴대전
3시간
작업에
부르고
LTE
않았는데
죽음의
개같은
다는
바위
##왔습니다
목욕
##폐기
복무
가지를
중화
손학규
##워드
누군가가
두려움
##증에
지켜보고
아마존
2019
학대
편안한
장거리
쓰이는
푸틴
지들끼리
##작전
가계부채
현정부
OECD
##족을
중지
한우
팀은
피해는
좌표
다른나라
##제약
보도를
상해
농가
방식은
강의를
크루즈
묵묵
##이여
추잡
##길은
있을까요
헬조선
온실
예민
##날을
마비
극장
##민주화
타율
가정의
용이
쪼개
##인지도
불합
배부
성과가
Pr
##농업
노트북
정우
역사와
약간의
##팔아
박스
대가리가
했나
구할
하죠
##을텐데
##센터가
역시나
받았다고
##있어서
증거인멸
##종교
비결
실시한다
대행
협약을
유투
주장한
황교안이
지들은
판사는
##전지
##문화재
##죄를
분야를
되지만
총리의
버릇
##할게
사라질
##재해
시민들은
특성상
##이구나
환경부
쉽고
특화
모양새
백제
기록에
법으로
##양반
아끼지
형님
##환을
아무나
잔인
SUV
베르
있겠다
##벽을
있으면서
##급으로
오너
기지
##키고
왔던
##가입
##스트는
때면
드릴
굶어
##얼굴
양심이
삶과
소비자들이
자식을
##회사가
판매가
##쪽에서
사육
이쁘
방송에
떼어
꼼꼼히
잠이
이런식으로
여신
단절
##태는
브레이
발레
지루
내부의
무리한
민사
히트
정동
##만7
지각
발걸
##벤처
그곳에
베를린
협상이
##라인을
하이브리드
같다고
살리기
본선
미처
##르면서
채로
##소방
책상
조작질
재임
지속가능
설립된
비춰
프랑스의
취해
##관리를
비호
##타르
장자연
필요도
걸까
제품으로
박병
벽에
기록해
한발
한국으로
시켜라
이해하기
제목의
몰두
취하고
분은
그제
차례로
버는
혁신을
심해
행동으로
##미에
내려다
상습
다툼
##센티브
줄이기
부들부들
##퓰리즘
방식의
##석으로
##들이네
하버
아픔을
##만4
비상대책
산업통상
계엄
##동아
소모
##조국
방통
오일
가세
커버
중국산
인간아
##하는거냐
##적으로도
##군데
진실이
친구들과
같으니
국외
장점이
##수저
부산시
##경찰서
달랐다
트랙
##감염
갑니다
선착
##재료
플레이오프
박상
멸망
##노인
##철을
말라는
자칭
제치고
높아졌다
캠페인
##케스트
당신도
건강에
내용도
다가가
숟가락
##작업을
##금속
##지오
것이나
81
우리나라를
많았
##사다
명에
##인치
미스터
##닉스
연락을
##외과
##자들도
책임지고
##역과
회전
수준인
끊이지
학교는
상하
무너지
터트
좋지만
보이콧
만들면
시작되는
언젠가는
구사
강다니엘
##팀장은
공약을
찌라시
안하냐
투표를
말해서
둘은
##론적
삼성전자가
말이지
현명한
700
누구에게
##사냥
싸움을
무서워서
제공해
나눴
##였네
어쩐
불편을
##됐는데
부부는
에코
경제학
매장을
대화가
확보를
##먹어
##고객
활약을
친구들이
안된
가맹점
이르렀다
중장기
##선물
지워
호흡을
이글
일찌감치
전경
러시아의
법안을
##이란다
판정을
##킨다
전반적으로
##가나
않음
근무하는
치른
##셔도
이송
##손으로
알아라
슬슬
##째로
보살
##없어서
##시피
##해하는
소폭
##난히
총선때
운명
5명
머저리
일명
##예방
분노를
방문을
크레
침투
외식
정하고
##쳐도
고졸
애쓴다
후보자가
괴물
김선
아들의
해병
효과는
해온
판문점
##당시
벌어지고
아깝
##갈이
고지
심심
불평등
손님이
잊고
전의
##지기도
바짝
서비스가
목적은
##능력이
160
장기적으로
몸으로
강구
처형
주차장
없이는
3분
증대
##⠀⠀⠀⠀
##설명
방탄소년단
할것
프로모
통영
##업계에
바뀌면
질질
##기에서
오페라
행복하게
자리잡
잘했다
상시
##우주
타이밍
##절차
이전의
야이
롯데마트
섰다
자유대한민국
멍멍
전범
실시간으로
국가적
표본
수상한
공사가
부산의
생명의
##좀해라
##명하게
새키
##에이
핵무기
##36
중심에
부가
가능성에
##들이지
서울로
변호사가
##들에겐
이미지가
자란
운영한다
최선의
빠질
연평균
안된다고
경제정책
쿠데
##막고
소나
##합을
손쉽게
새끼가
유공
##곳으로
##스리그
체계를
각국
인류의
불출
자기네
한의
일부가
조화
법원에
데에
형태를
많지만
뭐하러
##아래
##임은
우상
##스틱
뚫고
넘는다
##적이라고
##니어
사격
그늘
꾸려
독려
민경욱
붙은
##해볼
비참
장담
##매수
결과다
인사가
출제
말씀이
하루하루
##인지는
##기간에
##공무
##실점
##업은
구호
반기
구두
분배
##스바겐
법제
백수
딱딱
아하
출현
##대지
무시하는
##치네
특징을
청정
##인식
중점
뜻한다
입점
12개
##if
##내라
내용과
주의를
입단
휘발
##ip
알겠습니다
깊게
주목할
두둔
##최고
##국민이
##림의
##센터에
혜택이
깎아
신부
대답을
##거에
밝히는
산업통상자원
군수
판단한
없으니까
##충이
코로나19
감독과
알면
##케어
이하로
겨냥한
인센티브
개정안
엘지
유관
처단
##제철
근처에
똑똑한
되기를
##저우
지냈다
##경제를
차리
주축
선교
검정
잡기
이단
컨테이너
에이스
자매
진술을
지역주민
보여줬다
정의가
##않고
92
계곡
##소유
여건
되기도
결성
먹어도
혐의가
원작
##디가
과다
내신
사용을
위주의
인물이다
##균형
##있어요
몸의
신재생
똥꼬
##능한
##est
마트
내년도
감사를
본질을
임금을
##전선
선조
지켜보
##러드
##인건
##대표는
가능하게
집필
놓았다
##금리를
지냈
다저
모터
하나님이
않느냐
보이는데
아내의
탐구
##그런
양승
주가는
##사정
##세력이
더더욱
절약
##혐의
찾아온
유명하다
##침에
돕고
비교할
강사
엄마의
서울과
쥐어
견인
강화해
가족은
어느정도
박용
##둬라
유예
##강도
##책으로
2011
##언더
낮추
과징
설사
증오
살펴보
청취
달라질
기술과
판단하고
짐을
환자를
벌써부터
변화는
키울
할말이
##창출
현실적인
후예
장기간
##리안
남용
##벨트
찾아서
대학에서
찾아가는
##달러로
귀한
##군으로
##린은
새정치연합
자이
뉴질
코치
##생태
새우
말하며
##랑은
임영웅
구리
할머니는
사람만
이것들은
똑같다
##년도
올해로
양파
갤럭시S
##였어요
##연하게
분위기다
너머
할때
돌아올
오류
##정비
뜨고
##북도
지인
막내
더럽게
적었다
선거구
뜻하는
정상적으로
훗날
##러는
엄중
4회
졸업한
항소심
##축구연맹
사소한
##고등학교
고만
구린
##설계
증상
고려할
외에는
밴드
광장
##었죠
##전도
안된다는
##공격
맞네
아시아나
##농협
법원의
강서
개신
김준
도민
일회
맞다고
뻔한
벗어난
안드로
##값은
떠났
##내에서
쏟아져
중증
찍을
주위에
죽기
인생이
공조
후보와
도지사
넘어선
약물
처방
김성태
##림은
마음껏
##원이다
##카드를
가르치는
멀쩡한
##줘야지
이유에
길러
부정부
준다고
일련의
노리는
주제를
##하구나
##와이
##하겠냐
정례
할배
윤총장
##인게
줄서
생각해서
잊어버
##폰을
만이다
기조
양적
추운
##걸까
##히면
##들면
시켜야
##쳐먹고
법치
비용은
연구에
상승한
이후의
뜨거
##하시면
발령
엘리베이터
유성
##팅을
##할머니
죽으면
쉬는
공짜로
했기
##강의
고혈
열등
롯데는
한국도
##절이
##들이고
##터미널
넣었다
##디움
하락한
죄송합니다
폭이
##클래
이외에
##모의
만나게
##답다
없구나
수익률
이상인
정권교
여야가
##구마
날로
주변을
한국어
상당수
저절로
꾸준한
소독
지난해부터
때를
##수준이
우병
내의
발부
방학
##철수
용어
사진은
##타점
예언
서초구
수직
집값이
거북
김명
##코는
보수는
가령
혼합
##싶어
건가요
작품이다
감기
전문가들이
보여주기
프라
외교적
부족하다
등장했다
눈치를
관종
기술은
검찰총
노하우를
함으로써
애플리케이션
그까
김형
빛나는
한시
도입을
여름철
말아라
표현하는
교수님
체결했다
##주의는
##37
1992년
믿음이
##해달라
판단할
잃어버린
찢어
닥치고
구역질
하실
##새기
만다
기를
자가격리
강좌
발생한다
##ook
아니죠
제법
시킬
단체로
인접
##지긋
환자는
밝혀라
돌리고
돌리는
선고했다
어렵지
시절에
이쯤되면
올라가는
##얘기
올해의
이르러
8강
##끼는
강성
장치
국방장관
역동
신뢰가
열리고
##문제가
꽃을
성공할
##모양
##일간
망한다
말아먹
##었을까
##위권
2분
##갖고
갖지
바라보며
스캔
카운
이러면
보상을
지원에
성찰
##겟다
우스
단편
여경
위치해
논의할
없었을
70년
##구라
느끼지
요청을
##되었다는
다물
직원들은
##나오는
##적이라는
자유무역
감추
맞대
##문재인
수장
터널
요소가
쓰여
알렸다
장려
문건
총수
기아차
가늠
##경험
좋으면
##줬으면
박물관
##av
선택하는
##사업으로
사랑에
##99
막강
원심판결
고장
##락이
놀랐다
범법
해결하는
불평
선거가
2대
입었다
서울중앙지법
차가운
청와대의
논란에
##지노
머가
아니한
갔다가
부문에서
제공한
앓고
조건이
포지
##령은
귀여운
승점
##청과
차려라
그놈의
거나
사랑과
서울은
10만원
팀장은
깔려
얻게
쪽이
키운
하필
전체적인
먹었다
등재
않으면서
##사들
##진당
받으면서
##됐습니다
이시국에
##실장은
표창장
##설에
진지하게
마신
곁에
더럽고
죽게
마라톤
##청에서
옆으로
향했다
정책으로
##보이는
##판으로
##넘이
언론을
것이니
검찰총장
만나면
##3000
기관이
##업의
의미는
도주
##노트
기금
벤치
시원하게
증가하는
개그맨
##닷컴
##협약을
파라
판단은
우아
윌리엄
##ang
되었을
생기고
반영한
잇달아
협조를
##총을
상인
살아갈
확보하고
히로
댓글에
##결과를
혼란을
예비후보
##테랑
실장은
북조선
말이죠
배터
##식당
박멸
베이비
5개월
탄소
화제
한눈에
##주신
사람이라면
16강
##DB
같다는
저자
돌아서
팽팽
##속이
조원
구해
매운
##백이
걷고
확보할
군대가
추정되는
오브
##TS
햇빛
있겠지
서초동
상태였다
##해주면
제보
살리는
##체제를
3가지
웃기고
넘었다
심판을
중요하다고
텔레비전
오지게
자신만의
돈에
때문이
면세점
##콜릿
김제동
몸은
유세
일어나고
미래에셋
명의로
제시하고
보도에
##오일
1박
활동하고
열악한
개미
##물이다
잉글랜드
개정은
설문조사
##단에서
##당했다
과제를
조화를
행위에
끔찍한
확정된
전성
##변에
제기된
내용이다
모르지
낫지
풍요
##포트
통하는
##유는
선보이는
##000만원을
st
강렬한
패스
경찰과
##받기
엑스
했다면
##조치를
저래
솔루션
##플레
바로잡
의약품
G20
김장
포퓰리즘
##소시
모지리
병을
대법관
벗고
vs
##발언
비전을
##폴리오
11개
포기한
기쁨을
##빌딩
없었습니다
업체는
넘긴
DM
##기관인
##병은
##표준
하고는
가정을
##주의와
##로써
아세
웃을
##한의
203
겪어
부임
##되길
가도
연쇄
베어
세월이
Ch
쌍용
우와
고민이
관련하여
페이지
취할
##이노
##디는
직원을
하남
엘리트
##거리에
##단위
재인이
##말아
##금도
발견했다
감사의
빠는
모시고
펼칠
##함의
##인구
임무를
덜어
조국과
##왔지만
대대적인
한수
순서
뛰는
침대
##에서다
남조선
표정이
박근혜는
조별
박영선
##구조를
지저
찍는
이뤄지는
##투기
인식하고
가관
모두들
않았기
원고의
이집트
몇번
##라구
잡아서
사용한다
시청률
한잔
기업가
##플렉
운영할
##해결
댓글들
단단히
해지
자연스러운
##바이러스
##행사를
##겁다
남성의
##점인
의견도
의원들의
공헌
매니저
인형
##화되는
##스트로
귀에
따지면
외국인이
무기징
카톡
##분한
남북관계
4조
한국전쟁
1500
꼬박
##감의
몰입
##더스
영유
##이후
##지역으로
소리하고
##호텔에서
당기
##자에게는
##LED
낸다
##마케팅
북에
문장
응용
공급하는
##건만
입는
마련하고
공간으로
##효과를
##받아서
감성팔이
300여
영업을
반영해
휴식을
아이러
사실과
누군지
##니의
말부터
##PS
학업
엄벌
중심이
부끄럽다
지정된
신약
고3
합의한
##건설이
##드레
느껴진다
뉴질랜드
싸울
입구
차는
한편으로는
##밥을
브라운
##TO
소나무
##블록
적용할
##고로
스페셜
##아동
이산
연구소
발견한
##다녀
만들어낸
삼각
하는짓이
소재를
알레
공영방송
고려하면
홈페이지에
이루어지는
수출이
시티
보고를
##먼저
미련
분단
아이에게
제임스
##첨단
너희들은
특성화
이곳을
감탄
##세기에
##신한
들먹
꿈이
피자
바뀌고
명은
CNN
편히
##ㅅㄲ
코스프레
이경
실려
교사가
FI
국민들도
넘어가는
경제부
##커피
않나요
##각이
##품으로
##기보다
드론
아티스트
올라갈
묻어
옵션
경제성
무능력
불쾌
취직
급히
열차
친구를
어렵다고
싶다고
탈탈
페이스북에
받아라
진상규
폼페
##5일
내보내
부상으로
불신
답답하다
##성향
소장은
##지라
요소를
##크의
규모다
##업체의
후유
수꼴
효율적인
##처먹
밖의
교사는
의문이
군대를
구직
##34
정진
중기
##영향
올라온
스마트폰을
압력을
##올린
챙긴
발표하고
지급하는
##맛이
기술의
##명이나
진정으로
구성돼
잘생
##였으며
1970년대
사랑은
피눈
폭동
좌파들은
의견으로
년이
##종으로
소액
지체
산학
얘기하는
바른미래당
##52
미달
##stagram
##꺼야
작품의
괜찮아
위배
##겨워
변해
도가
죄인
제외하고는
반사
나와야
라도
참을
처리를
이야기다
피해자의
##가는데
##여도
평화와
전문가들의
1993년
놀이터
##발전을
##집으로
아메리카
웃긴다
정책과
발생하고
반문
임무
높아진
전달하는
##천의
국가정보
무대에서
경과
열을
중얼
##코로나
성경
패키지
현수
관내
의식이
판매한다
##과장은
천만
##들처럼
발언이
현상은
##플랜
해서는
장미
남자들이
우리은행
##하듯이
모양의
##애를
깨고
쓰게
금리가
재차
닮은
김정숙
##내자
정면
짝이
바퀴벌레
책임질
유래
판단에
정당이
언제든지
5회
##중계
포용
##렉시
중소형
보이지만
편가
실패했다
살자
변형
##지않고
곱게
쿠바
경쟁력이
출자
설립한
기둥
실체
##만큼이나
눈높
동대문
강제징
낮게
스킨
포스터
검찰과
개정안을
##댕이
교차
원료
최선
기록이
##구장
태워
##해달라고
##만여
생선
##았지
원고가
##사법
귀엽
무엇일까
케이스
실험을
벗겨
간단히
##에스
시카
국무장관
밝히지
시국
해먹
교원
##으라는
않았나
당국이
##두가
의외로
대명
클리
절라도
국군
##ww
핵을
##위원이
특징은
후보자의
##준의
싫어서
정복
##았냐
협업
##파에
가격으로
지수
형상
하청
규정이
장소를
##들끼리
타인의
바다를
커피를
실명
체계적인
비아
구하는
남자를
##호흡
갇혀
발송
중요하지만
##PGA
##OS
당시에는
여럿
객관적으로
목소리도
알코올
알면서
과거를
##장님
유병
셀프
밤새
패스트트랙
노력하는
효율적으로
실시했다
안경
##재난
나라와
증권사
헤아
##카는
##루는
장비를
가파
에피
##시장과
업무에
더불어민주
천막
##구장에서
유머
관리에
분석된다
원산
돕기
시신
모호
있거든요
가요
말장난
##족이
해볼
##자만
주름
티셔츠
경로
혈압
##자책
드러내는
##판은
본다면
변화의
##테이션
선정해
발생하지
혈세
##있었다
금융기관
창조경제
##초에
수거
가능해
최적의
##시효
손꼽
버락
그라
익숙한
자외
굴러
##국수
헌재
많았고
위해서라도
##브로
성수
구형
중국인들
준비했다
##취업
도구
빌어
##중대
주장이다
##걱정
##이었다고
미래는
홍대
앵커
연계해
##두리
상징하는
무게를
치워
비리를
순이익
##급이
건전한
박차를
주민등록
기밀
주민의
줄고
일어나지
보도가
개발하고
조직이
예술의
신성
부재
##네는
관광객이
##our
##다나
##스피
제8
1987년
특권
못하다
LG는
구로
낮다
3건
노답
벌을
아니니
실질적
구걸
19대
1월부터
##세금으로
다각
안정적으로
졸업하고
대성
상고이유
시너지
##간다는
아이스크
##지길
답답한
##나나
한반도의
##시대의
자처
편파
임직
##오던
##시로
더보기
현대차는
KCC
정치의
비평
틀딱들
재선
기차
환호
자유가
##인간들
##되었을
병이
대변인이
남짓
과학적
왜이리
원심의
달리고
좌파는
디저
##등의
친한
정몽
가는데
밝힐
가사
지긋지긋
##왕을
350
KT는
남에게
점유율
연구가
##용지
판정
수상했다
상공
베테랑
갖췄다
##노릇
방을
사태에
진행해
필연
전쟁의
메시지
생각하니
번이나
판사가
##린지
나오기
통일을
이언주
그만두
##시안
##벤션
##체육관에서
성분이
위험에
##집권
대면
소통을
##오게
중국도
##소연
##콘서
도우
민주당에
적고
##모씨는
##처에
##예정
국비
영주
질투
사설
숫자가
##셔요
유신
아시안게임
장점을
수년
구워
연내
##일까요
##환경을
입맛에
넘어섰다
##드에서
얘기도
2000년대
드러낸
##빈은
백인
생각좀
때문으로
짓이
살았다
어느나라
미얀
드러나는
그녀에게
바뀌는
##께요
일기
살릴
동포
아녀
편한
##공동체
토크
7억
나가면
오른다
##족의
씨앗
##공천
남구
사단
사귀
서류를
숨기고
서울시가
위협을
##졌으며
잃지
평일
이렇듯
인터넷을
평생을
의문을
모양이다
버디
국회는
들어와서
사고는
##캐피탈
##콘텐츠
신학
마감했다
##소수
입소
사주
우려도
##ee
##끼고
##38
대동
떠오르는
대갈
됐다는
보고서는
##창을
대학이
클릭
대응할
제출했다
인용해
무작정
##자리에서
제작한
먹거리
그땐
스쿨
죄인이
##작은
##쳤던
작고
짜파구리
##음의
계획은
그치지
옮기
미사일을
움직일
##서치
아이들과
국토부
설탕
들어야
해피
##메이
수긍
워터
의무가
위기가
변호인
여부가
신문은
##타의
인과
수질
이러고
홈페이지에서
중요하게
20세기
3주
압축
뜻은
머물러
아내와
##부러
학교의
호소했다
##셀러
오마이
이뤄지고
언제든
흑자
2020년까지
전진
교회가
않으
##함께
전부다
낙관
모르면
##시키며
##봅시다
##청정
가치는
도무지
다니면서
너희가
견해를
사도
흉내
못했
박태
사례는
후임
채취
부작용
쓸어
하는거지
##방어
1명이
하러
##칭을
세우는
건전
더욱더
경제적으로
##적에
서방
##렸네
공급이
##500
생활에
여자들은
##청소년
뿌리를
단일화
지난해에는
즐기고
부탁드립니다
거시
정치인들이
지속될
경인
##검사를
사막
6천
당당히
자녀가
##났네
있기에
중시
창단
저런게
적용되는
##77
올리지
이룩
눈과
##키퍼
만의
당사자
##테러
제1항의
약화
천국
##차적으로
역겹
가나
권장
호의
사회적으로
##인걸
평가하는
경찰서
##골이
토론을
먹방
위태
총을
강조한다
고위급
투자해
위상을
땜에
3인
성을
바다에
할려고
날카로운
온도
보수를
있는지를
폼페이오
보답
기피
깨끗하게
향상을
이뤄진다
New
4명이
##반이
반전
겪었다
##se
활동하는
교육은
됐는데
##변이
군데
보석
빠지는
술에
남기
보면은
휴게
덴마크
일주일에
##안해
태도가
2위를
군부
##바퀴
조립
청사
법대로
했네
부시
##사실을
무리가
세이
확인된
가능하며
##복이
버텨
##을지
##무기
조심스럽게
크다는
##겠고
##레오
신비
강화할
절차에
##그마
거라는
##만들어
조사는
공업
본토
간절히
##약이
##활동에
환경에서
##art
우물
##원장
##국회
간호사
저것들
##효과가
히틀
일으킬
추진한다
글은
옳고
위선자
발생해
어디가
##류에
직원은
망언
아니잖아
정체성을
2단계
MS
도입한
국방부는
객관적인
반발하고
외국에서
##영화제
실전
##안으로
##인정
없는지
리듬
피하기
제안한
주목받고
새누리당이
질서
##발생
신용등급
##되었으며
##들게
남동
우롱
##애들은
벼슬
원심이
이럴때
회동
여성들의
거제
찔러
겨울철
제시하는
##담보대출
이넘
서두
건물이
선수들을
눈에는
가지로
노려
##죄가
기대감을
요구가
##너스
상표
##잖어
아파트는
트위터에
상대의
바지
19세기
지도부
##따위
우즈
1991년
아버지와
하시고
##터로
##ttp
민주화운동
삼성전자의
이광
중요하지
백지
대구에서
박씨는
반대를
좌파가
내버려
CD
맛스타그램
속초
열흘
##움은
##붙어
쪽에서
##들이는
동지
어렸을
##쳤고
정규리그
달이
더는
색히
말의
면상
##보인다
관건
다투
닫고
##엄마
국개의원
돌아갔다
혼인
컨셉
급한
비리가
16개
지지도
끊어
앞의
수련
안에는
멸종
##끈한
고기를
##했어야
##비서관
선언한
뭘까
어머니를
돌아가신
김희
이현
상금
시간의
##법도
뉴욕타임
##악을
정치하는
실력이
폴란드
교육에
모르겠네
성주
귀신
식탁
##거품
오찬
교정
에도
옮긴
주입
남경
여파로
먹는다
##배로
안타를
편안하게
##중학교
늘릴
아오
못난
절차가
생각과
##기업에
봅시다
카르
권영
필요성이
경희
판을
SK는
전시회
한국은행
표면
##ly
지성
음식점
주인공이
입금
##애는
##정도면
날은
000원
이리저리
지시했다
##고루
##본부장은
띄는
내세운
신은
들러
얘는
##대장
##지역을
중년
뭐고
누구는
##셨으면
상기
##려다
##자라
재학생
운명을
##라이트
##간다고
남편을
대목이다
가깝다
1군
##루가
잃었다
비트코
주도한
##소시엄
예선
세력을
직원들
간담회를
교회의
보내야
이나라가
고객들이
##사회를
##드만
발목을
##하다면
##였기
약속한
진실은
##부동산
사악한
표현한
시선이
명예를
##산에서
1988년
반대하고
말했습니다
사실도
종합적으로
##류는
카카오톡
논리를
##들이야
의미의
91
마른
씁쓸
##말자
있는데도
벗어날
##ia
##새끼가
##어에
신속한
좋겠어요
그룹의
확고
임진왜
##놈아
##업소
##자라는
끼워
이외의
분석도
서정
평상
##하기에는
할리우
텍사
##작품
하자고
##투리
스님
설치하고
고리
분석하고
수행하는
취미
아니네
코로나가
##지않은
세습
칼럼
포트폴리오
이슈가
교도소
기념해
그레이
지친
##안고
출시했다
##현을
##일기
지적을
안희정
높아질
등기
못했지만
화웨이
쉬고
국책
맞는데
행진
개표
풀려
추세다
내며
출연한
##해야함
추후
받아들이지
딸의
출시된
않기로
아니며
정년
기다리
##버스터
매치
##구매
##채로
국민청원
사라지는
이별
##회관에서
당연한거
스타벅
지지자들
##생물
인연을
##현장
##간히
##탄소
호수
원동
일개
##니스트
##상황을
의원들
군이
문체
풀고
##강이
##슨이
작정
바람직한
금요일
안한
##돼서
##특위
랭킹
놓치지
출시한
발자
잡힌
##국대
##산업을
개는
사외
낭만
플러스
후기
사전투표
이용하고
가능하다는
인맥
떠넘
##망신
동굴
요인으로
소망
##신탁
유방
변하지
물은
아주머니
일입니다
등교
저출산
오스트리아
##2천
시가총
##노무
있듯이
넘지
촬영을
돌아간다
장모
같지만
##가들이
경고했다
눈은
밤을
시흥
근절
##당해
주위를
##행위에
순간에
##상환
임대주택
자사고
소아
총선에
피어
져야
우덜
나무를
스타일을
실시하는
없었지만
펼치는
생활이
단어가
됐습니다
골키퍼
한유
inst
기레기들
아내를
뛰고
구나
전산
##왔다고
##냄새
직접적으로
##급의
##이었으나
돌대가리
까고
편의를
파악할
##갱이
살아서
싸우고
나가겠다
내놔
아니기
본격화
장이
집어넣
##메디
이나라는
업데
종교적
##대해
국한
체납
##생은
다큐멘
남다른
수요를
세련된
해왔다
##있는거
##시에서
문재앙과
미네
##왔다는
질을
하반
100억
##버려라
간신히
애도
해결해야
뚜껑
적용된다
www
경험과
##죽을
##경과
기저
법관
공부하는
물량이
뻔히
왜냐면
횡단
진단을
태극기부대
##급적
##티비
비비
대구는
전략이
주문과
생각했는데
녹아
가증
승리로
생각하며
최태
구한
프리미어
##증후
LG전자는
요인
편견
선보이고
적힌
취지
극단적인
드문
수입이
##이런
##융합
##였지
이런건
싶다면
짧게
문빠들
밖에도
##전까지
상식이
증가할
##우와
##일과
생색
이름도
##당국은
모스크
지칭
대선에서
조센징
대를
##히게
치면
##48
걱정을
오가는
빠뜨
자기는
일한
내부에서
188
구조가
배척
외로
행보를
##박을
대회에
아홉
##해의
간이
금액은
찾아와
끄는
##인재
태어났
급격한
들었
##개정
##aily
객관적
잡으면
업체들이
##귀를
일본한테
전환을
문죄인이
없죠
온천
##초가
##보여
망하는
##회의에
가야지
울릉
##써라
양은
웃음이
짓밟
6회
##고사
##궐선거
##네가
있었으면
잦은
커서
기레기야
차원
금품
오산
고려한
탄탄한
##택시
건강하게
최장
여기에는
사료
##ill
##편은
##시간은
초콜릿
진도
스프링
북구
적용한
한옥
소릴
##였음
UN
김진태
리콜
##범은
공립
연구는
투자한
휴가를
드나
설명하는
건보
##OU
똘똘
홍성
##비용을
##점유
##승리
##령의
대하여는
입양
##신저
클라스
주도하는
##오면서
인터넷에
##GB
합니까
##목에
보수의
고혈압
기구
환수
6억
##진단
산은
항만
##바닥에
아닌거
국정운영
##방문
있겠는가
##광장
중점을
로스쿨
##강점
##번이
증폭
성균
조용한
낙태
인물을
170
못했고
지을
##했더니
병사
##포가
제대로된
##카를
냉장고
##했죠
개발이
파생
##파티
요구할
80년대
조속히
##여론
아르헨티나
확산되고
유상
두뇌
##플레이션
호텔에서
회담을
##맛을
##A는
장관과
판단해
##겁니까
리가
비만
레이더
목이
내려가
방문객
오르면
낚시
레알
지금보다
썩을
압박을
##는구나
치를
운동이
할수있
부드럽게
계속되고
##카르
확보했다
##난을
채소
부엌
임산
사임
##홍보
유한
가담
재킷
부분도
확보해
부산에서
##위도
##39
치안
상대방의
그러던
실린
##가인
다채로운
비슷하다
##MC
사장의
이용하면
##형과
연인
이방
권리가
회고
도시를
바라고
꼼짝
정신좀
##청년
매력적인
캐스팅
속에는
수없이
무사히
http
##질과
웃기네
제외하면
1단계
벨기에
명확하게
##xx
##댔다
앉았다
##ff
색다른
##중은
그립
훔쳐
해준다
서울을
##업체에
조금은
동호
배경을
이기는
숨은
친노
간담회
줄어드는
규제가
못한다는
##없다는
원로
조그만
하나요
수두
계획에
이꼴
사재
##림으로
이쪽
일이라고
삼척
##IT
주춤
버티고
소리에
##김없이
##동계올림픽
자료가
포기하지
##슨의
신한은행
편을
골고루
성장이
아닥
4위
##마나
##나라에
헝가리
끝을
인권을
최후의
놓아
돼지고
클라우드
김씨가
던지는
이국
대우조선해양
제도적
천주교
히어로
누구의
판교
있었는지
열광
어버
제9
통째로
ㅋㅋㅋㅋㅋ
누구냐
##창한
##욕이
처녀
전보다
조민
저주
쇄신
각광
##수행
미국인
교양
미드필
##권에서
거둬
##이긴
걸려서
새벽에
##만원이
##통신은
부지런
넓혀
스태
식약
유력한
자손
루이
목표가
갔는데
##셀로나
외국어
오줌
##봐서
일등
연락이
인상이
tvN
##지급
##👍👍
공직자
안먹
고액
만주
접한
내몰
스물
제품이다
비박
##매체
##지역은
##여러
##심리
소각
옛날에
단계에
전하는
##랬다
개최한다
살균
기기
은행의
비어
이면
##종에
즐거움을
업계의
메이크업
##ung
산을
묵묵히
##지휘
외쳤다
##도서관
교육부는
##란시
##수아
##태우
각국의
비방
장외
##량에
사학
우체
결정은
터질
희귀
명단을
수사는
양호
삼성화
음식이
비자
위를
죽는다
김한
조사할
우리와
끝내고
그걸로
동향
##케미
자체는
2009
##저널
경제협력
개최했다
##버거
일본여행
찾는다
##남자
##먼지
단골
메가
간식
##앉아
진출한
생명이
구성됐다
여덟
##방식을
##터의
법도
시신을
통증
논리가
개혁이
골프장
육상
잡아야
서른
마인드
##하자마자
문명
않는데
선택의
다녀온
저질렀
##병원은
##문화의
모두의
ICT
##자회담
인삼
해석이
1의
##알아
##경제가
##절차를
냉동
행정안전
##추가
교회는
않자
상품의
왕복
가져올
##ev
남성은
총재
인물로
##뿐이었다
4시간
친구는
안방
선생의
오케스트
##운이
##국이다
연말까지
샤워
전체에
보건복지부
사이를
KA
깨진
들으면
능력은
수작
밀접한
어짜
5조
높을
홈쇼핑
너그
is
##업계의
짙은
메리
콘크
폭으로
##이라는게
##먹기
자궁
##였나
저질러
실컷
산업혁명
김창
사는게
비단
자체에
##주며
OOO아
##백화
서비스는
대표적이다
수산
하루가
방문하는
내걸
운반
밑으로
것으로서
있었으나
입각
주택을
전정권
##보의
투자할
지름
배제할
동안의
따돌
안지
##등등
근혜
결단
미혼
##장면
확대하는
남측
활발하게
연평도
불빛
##전기
정기적으로
올레
동창
##조절
자유와
환장
##됐기
아나운서
필요합니다
##000억
역적
##그냥
취지의
##입을
정상에
선수의
해줘야
평균자책
전망을
##변경
민주당을
##부정
퍼센트
다리가
진전
##축산
조언을
##지도록
스무
##집어
미스
종결
징수
외화
것이지만
남편과
자신에
방과
##이미
작용할
방안에
우방
분명하게
교장
일정이
기사로
포르투
##드리고
신분으로
9년
신청한
DJ
오키
수익률을
언론과
##총회
##않는
1989년
우월
##갔고
하루종일
터치
패소
##이나마
도지
이런저런
모델이
놀랐
##홀딩
기간은
##색히
동정
STX
##폭망
듭니다
아일랜드
초대형
분위기는
위원회
입장은
유난히
매립
다이아
자치단체
도를
동급
탓이다
일조
보름
중산층
비난했다
##하였다고
초청해
##았으니
주석
배임
##민들이
인사는
넘어갈
떨어지면
##범을
##화수
걷기
의정
흔들어
걱정하는
견찰
올리면
상품이
##로와
##학대
금전
뉴스에
농사
변화와
돌연
##슈타
쓸모
##기업을
##하에서
줘라
새끼들이
비준
간단하게
##사원
##태평양
교역
##라디
재계
부족해
징계를
만원
흥미를
##가치
같애요
중이던
##받으면
공개하고
방위비
줄은
포인트를
친정
이진
수석대변
예상하고
압력
인간과
마실
##수리
##반의
##인것
##놈들아
흥미로운
직결
들어가고
테니까
해보고
##하기까지
책임지는
##수밖에
부수
키즈
on
##산업단지
대림
걸그룹
강북
송금
##밖에도
##부터가
##환의
오렌
땅이
로버트
있기를
##관념
총선을
중진
과감한
보이기
내장
팔레
해외에
진작에
현지에서
사자
집단이
김부
대가리에
재앙이가
부회장이
배분
웨이
공표
말처럼
기습
농어촌
##나의
##바꾸
예견
체계적으로
##증명
공산국가
엔지니
봐서
국정감
재테크
안해도
양해
전념
폐기물
달걀
정보는
공산화
구성하는
투명하게
양심도
치료가
잊혀
##유공
한걸레
사모펀드
가져온
마녀사냥
저마다
계획이라고
일단은
대도시
자발적
길고
수준은
빈번
##있는지
관심은
극혐
##머리를
##려니
표현할
파일
건설을
구성되어
##기네
##볶이
기준은
아니더라도
##성에서
바꿨다
사는데
민주당만
펼친
1순위
명동
연체
##중개
주장도
딱히
##기준을
왕의
##네스코
이렇게까지
만들려고
고고
상품은
##창업
영화에
유언
##스틴
다할
지역별
대세
조금도
3월부터
나팔
투자에
발명
거점
정수기
모아서
전문가가
처리할
금연
있었으며
두지
것이죠
다듬
삼가
뒤에도
##홈쇼핑
서울고
실리콘
따름
잠재적
걸어서
장래
탄핵이
또래
예산은
기운이
##취소
넣는
부자가
500여
섞어
##회사를
##강화
##강간
돌리
성장률
넘을
판타
통증이
최근의
노인이
유착
민주통합당
15개
말야
정의는
##안한
스티븐
다주택
확진자가
브렉시
##ive
##학에
보편적
잘도
이간
##회장은
양현
신천지는
틀을
##해야합니다
##메뉴
때에도
주말에
급하게
노리고
자산을
방법에
한몫
머리는
##자이
하버드
##산업이
옮겼다
장례식
##진다는
예상보다
동쪽
##언더파
##근이
늘면서
##유로
가입자
묻은
키가
폭력을
이것들이
추악한
쌓인
추징
승용
슬라이
다른데
남북정상회담
넷째
##비행
가면서
제의
##분들은
의대
교실
##65
##았으며
아이콘
길어
강하다
알겠다
의구
모름
규정한
슬퍼
방으로
유저
도청
아라
한가운데
세계로
##88
승차
폴리
피고인이
사과하고
단원
할거
순이었다
해양수산
기술적
112
읽은
나왔는데
##다보니
##협회가
느껴졌다
벽을
등장한다
기자야
##75
무죄를
##ㄷㄷ
내놓을
망쳐
원화
기관의
저널
국세청
촉구하는
##티는
소개한다
##도도
##달창
무상급식
발악을
통합당
등록금
문닫
자체의
분노가
##지부
죽어야
##gl
광신도
동영상을
소수의
실물
축산
##량으로
보는데
후보에
##병의
많기
설명한다
##일인
체결한
이것저
1만원
구입할
이왕
언론에서
삼겹
공산당이
장의
특이한
좋겠네요
오승
세계는
머무
##이었어요
해결해
##웠고
8개월
임종석
도로를
노선을
or
##여명의
##론으로
역으로
개선에
한자
##산업은
민주주의의
##란시스코
##찍고
정립
중소기업의
특별법
##놈을
일제강점
계속될
땅볼
##변호사
올인
좌파들이
공연이
초부터
연습을
상황과
달렸다
견딜
근원
##ㅈㄹ
이긴
김종인
친근
여러분의
##장구
나을
투기꾼
아파트가
왔습니다
국민에
부평
##무니
앞으로의
댄스
평화가
##일듯
녹취
달간
의심이
팍팍
프로듀
위촉
회원국
일체
##소개
보기에
##이었을
신공항
국가주
좋아한다
서쪽
벚꽃
예정이라고
텃밭
뒤인
필요없다
내년에는
있었다면
방송통신
보훈
이어갈
기호
##2일
유격
시민들
이득을
##오니
##코드
##정책에
출신이
흔한
자체적으로
결집
기자님
유교
##물어
8회
밀착
선거는
청계
요리를
##성이다
별거
##ard
브루
아르바이트
군림
중형
##위원회와
누리고
금품을
도래
##됐으나
##대구
그리고는
모양이
말씀하셨
소득세
7회
지지하고
개독
##질하는
우병우
##천이
##의회
연초
이산가족
간과
시일
##러블
문천지
한번에
인사들이
##주사
다가오는
손수
원한다
전역
야채
소설가
##테일
일방적인
5만원
##겠구만
##교육의
##투수
체험을
정신차리
반성하고
##배에
인증을
##티드
까는
마련을
##아니면
대신에
##기전에
##반응
1승
공이
입체
시설이
방법도
거부하고
##오리
##킬로
막혀
운영해
ㅁㅊ
하나라도
주인공은
맞나
나노
##장군
유네스코
목록
밝혀야
유익
변함
최상의
드러났
예전에는
기꺼
요청한
네트워크를
트럼프의
가격도
각오를
대구의
에효
##신경
##량과
모독
걸렸
뛰었다
할머니들
백화
경기장
##자로부터
안믿
가꾸
아쉽다
##해봐야
##세서
##주면서
##루미
싸이코
나오게
##조와
싸고
##무슨
컨디션
열정을
금액이
통합진보
7월부터
##기한
##33
캠페인을
부사장은
모든걸
확률
영어로
카이
##지냐
그것에
했었다
생태계
하태
##연료
토종
중국인이
일러
개돼지들이
##LS
파급
벌어질
뒤통수
교묘
##미세
스파이
차원이
##공간을
투명한
상응
프로그램의
곤두
김여
존엄
했을까
요건
지난번
##밸리
해봤
줄어들고
부정부패
##TF
##수용
이승엽
위협하는
충분하다
##카드는
당선된
설명이
##달을
##직으로
전화가
햇볕
잘사는
페미니즘
그래픽
여지
재래
김정은의
스티브
것이어서
결혼식
했다가
젊은이들이
흐름이
사용이
단연
성동
업체에
##ell
반역
##청사
업계에
##44
담임
깔끔하게
##정책의
구성된다
사용하면
교수와
12년
잘했다고
보내라
레벨
일들을
못했다는
자초
더불당
조치는
LCD
##세끼
##들어서
몸과
스미
지켰다
다음의
으이
말씀하신
##일자리
경영권
환경단체
평가는
표방
하다니
응모
월요일
창설
##셨는데
타다
만인
실패를
캄보
##사장
것만으로도
한민족
부정하는
약국
##분과
문재인정부
##원자
의도적으로
매몰
최저임
불린다
국감
신청할
주권
고유의
부분에서
한인
##고시
영감
조성을
크기의
빨갱이가
논문을
카지노
가르치
빠르고
강제징용
눈부
적자를
##나눔
입수
되었다고
산악
##읍니다
알아보
꼬집었다
##거로
욕심이
후진국
특이
명으로
##HO
선수로
쿠팡
##직이
##시픽
##남부
경험한
구매할
토마토
누가봐도
무분
##공작
##사관
기억하고
달콤한
어리석
스피커
하늘의
##ht
교수를
고로
진리
##내어
당국의
무늬
앱을
##비용은
사십
영업이익은
관계로
일제시대
가세요
외치고
부모를
직선
없애라
##였으나
장기적인
대기업이
##아무개
많으면
##것이고
##꼬라지
##촬영
계단
찌그러
##완화
때리고
총기
이케
번째는
내포
동아리
징글
선생이
시급한
이모양
숨쉬
클라
이뤘다
##질하고
한국시리즈
찬반
##플라
다뤄
후계
바람직하다
효과도
사세요
알뜰
위원장을
의도를
명성을
기술로
터뜨렸다
거둘
국토해양
그것이다
어설
국제사회의
##교섭
노력할
##아이가
포함되어
항암
노회
교부
해석된다
발언에
나오네
호르몬
직원의
착취
구하기
제조업체
기억에
유지하기
기자들
없으므로
깨닫게
불의
원심은
##으로서는
있지요
낙선
많음
현실의
죽음에
##시키려는
악수
##지표
##파리
내부에
구독
넘겼다
가로막
적절히
안들어
웃겨
휴양
모이는
한껏
캐릭터를
구성원
국가로
##연도
그러면서도
2022년
정보기술
브랜드의
##ob
보류
판결한다
선착순
이것저것
강호
레이저
##상관
소방관
박진
기용
바리
똑같네
공직선거
##유기
말하기
이천십
생각했던
과제로
업체의
##공부
다행이다
장남
고마운
A씨
##주냐
꼴보기
않은데
계속되는
인정을
기적
싣고
##이래
아카데미
안간
선정한
시작했고
수준에서
심각하다
에드
##션은
경제도
출구
일원
스윙
고객은
##모토
##수단
관련해서는
합계
##만족
KB국민
사적
##질서
원시
##리는게
격차가
##나라의
##프라이
해야할
박쥐
거덜
마니
좋아하고
안맞
공청
하하
##물도
학생과
해본
한대
##가슴
만들겠다
국영
기회로
도입해
##야당
우울증
기자들이
일으켰다
모셔
인정했다
부작용이
만료
##정도는
전통시장
수석은
작품으로
##번호를
만남을
직업을
##침해
##지거나
시민들에게
어짜피
바닥을
승계
다니며
##나라를
허리를
케이크
피터
해봐야
##후가
사명
이해관계
메디
맞팔
나치
때문이라는
나타나지
배추
##피는
무슬
##답을
대부분을
영향력
개발과
##격에
없었다고
##통과
스카이
##실업
지내는
대중의
##3천
##af
나뭇
싶었던
친문
한미동맹
65세
##센터와
카메라를
##츠는
여배우
쓰나
있음에도
붙인
고심
북한도
새끼야
재학
없잖아
결정적
안팎의
안드로이드
남자들은
문어벙
싶네요
미안하다
이것들
##혼자
경기침
주택담보대출
금감원
기만
수산물
공간에
불어넣
들어도
##경비
주민이
전작
너무나도
문화와
##았기
설치한
기술개발
##장학
##신문은
높다고
협정
세울
손자
컨소시엄
고민하고
로또
##릭스
##덩이
개정을
논리로
똘마니
어쩌구
브리핑에서
감행
닦아
##천은
실체를
이창
##시의회
##대리
불투명
##까리
##극을
가상화폐
김세
수제
우리집
논의했다
지지율은
아니었
달성했다
남미
반영된
##학과를
바라보
##케미칼
대수
대학은
##갈비
지위
영수
침착
현충
훠훠
##통의
공장에서
환원
공부하고
정화
십자가
15분
##기록을
##링을
드러내고
##연설
실시할
##여행을
임진왜란
##시게
반응은
##보고서
더듬어
수행할
##인생
##거늘
살았던
##ER
동탄
##주나
바이러스가
코드
자연을
타이거
인위
초상
##였다면
울려
선정했다
변태
##규는
가급적
들아
보이스
선택이
##것들아
밥먹
사이다
##엑스
않을까요
치밀
##득점
사라져야
성능을
7만
##학력
있어야지
바빠
재편
관계자들이
형성된
술집
너희는
가입한
능동
##신청을
조약
##손해
전문의
웹툰
질서를
성균관
책에
박인
장교
못생
대가를
싸지
도피
의석
스틸
##겟지
##책은
사용했다
##기관을
이야기하는
유기농
기온이
##운동의
안되나
기꺼이
프로그램으로
영하
맡게
##버려야
보리
개발하는
공유하고
김관
간직
검사는
미친거
##제국
졸업생
##습기
수사권
##공은
베풀
어용
흘려
끼리끼리
##조약
##유출
##행위가
들어설
##멘트
단체가
재빨리
이용자
버렸
기울이고
사퇴를
##르가
나이를
피부가
##롯데
생각된다
##화했다
굳건
꽃이
##화도
##에게만
하면서도
다를게
암호
악취
악플러
##직은
1개월
전전
우편
다짐했다
1주일
일으키고
돌아가고
모습도
같은데요
댓글부대
밝혀진
입지를
지킨
총동원
##박람회
비치
속은
맛있다
알수
사업비
안좋은
떠오른
무언가
##설비
맺었다
도착했다
##러스터
자동차를
오세훈
수입을
##노는
두들
05
들어보
이산화
마루
유보
##망에
값이
##제조
허브
어쩌라고
##지랄
도시재생
##한텐
좌파의
##회사에
인생은
참가해
VR
얻지
제정신이
괜찮다
인신
##다니고
해변
##후의
##pl
음원
##보전
구도
시각이
신중하게
행사에는
감빵
주역
증상을
직권남용
남들이
무능하고
아쉬움을
연이어
##oll
##하였던
조문
해결될
##베리
##퍼센
##가네
이놈의
데이비드
인양
조류
살인마
장마
전국민이
이식
마케팅을
오징
##운을
모습이었다
단계적으로
잘해서
0으로
당근
봄이
##노동조합
##령으로
##병원에서
부역
마리아
민심이
파손
공무원들
역사적으로
깨어나
9회
심사위원
받기도
시작하면
토론회
한국인의
물어뜯
놀랄
국정조사
속옷
절로
##과에
##상인
에릭
공식적인
스스로가
현장의
시대적
본연의
스스로의
다죽
뭐하고
참전
공급을
안간다
##eg
##차례에
타결
양을
간다고
sns
부럽
백만
대구시민
팬들이
공개됐다
작품에
대기업의
7천
쌓은
##법률
개월
모자란
지나고
위하는
안보고
조형
가성
대두
발견할
다음에는
이도
양질의
버스를
##맘대로
서대문
##세권
원하지
안되는데
향하는
정형
##성적
것과는
워크숍
홍삼
봉사활동을
치아
2명을
한도
내려와라
샌프
##사람을
증진
바꾸어
직장을
20개
사법개혁
분들도
##면세
찍었다
비자금
구축을
부분이다
김윤
##락에
든든한
##크라이나
파렴치한
부가가치
625
뭔가를
여느
##잡는
인종차별
알릴
##같네
##제도가
사천
자행
분야는
연기가
##논리
민선
##같으면
##장사
사상을
##오르는
##할수록
쪽을
주파
김혜
저희는
줄도
레저
준다는
잠잠
위대
띈다
##랍시고
올스타
##이었다는
어디에서
전기를
예정이며
상황에서도
##즈와
##스러울
드러난다
고위공
퍼부
유류
가능하고
리우
##업계는
##마일
##찮은
예뻐
어처구니
응징
##쯤은
##매출
단계에서
정면으로
솔직하게
##토를
우위를
##해지면
챙기고
비난하는
살펴보고
##다니며
##하기보다는
잃을
원자재
전남도
공간에서
조기에
체제로
##ld
전수조사
모른다고
유치를
도시계획
못믿
총알
##ak
불거진
결론이
부칸
##문제는
##커스
파이팅
특사
행태를
##음과
소개하는
##몬드
안남
##뿐인
자리는
장점
판결에
걸린다
판에
신차
시작해서
##와라
받았다는
##공의
##함도
503
공격수
##과제
저녁에
분해
분주
어째서
##선도
##소리는
전향
##대우
안정된
챔피언스리그
뒤져
친박계
면이
책에서
한유총
승강
담보로
추억을
4년간
정계
태도는
허위사실
사람한테
임금이
역사적인
##심도
힘드
##치자
##라이언
아무렇
묻혀
욕할
눈감
살해한
시기는
잔디
##정권을
개한
산업혁
인디
팀에
달러로
여왕
자아냈다
북한군
기술력을
그도
1억원
공정하게
대구에
회상
구성을
바르셀로나
황당
베댓
위기의
예산안
실세
##티스
촉발
##사고가
꿈은
아바
##화되어
수평
가족들은
분양가
##47
##사회에서
영어를
차리고
살수
수월
시급하다
수두룩
##사업자
사업장
##지원을
##티를
다양하다
종교의
초에
나랑
의원에
과거사
##량도
잊을
##66
없는게
숨졌다
##상가
도시로
문희
##BM
##티아
과거와
해골
아베는
요건을
서브
이력
##레나
##줘요
##대며
##글라
##꺼면
혀를
고려해야
인원이
우크라이나
인텔
막지
물리적
거를
##란은
오기
한건
##센터의
전세계가
잃게
8천
삼촌
##야만
절도
목소리는
##터에
중국어
나와도
##들과는
##ction
##동포
온실가스
우세
사유가
건넸
계약이
설령
공동주택
무기를
진정성
서귀
장시간
저능아
나라꼴이
합의에
함은
위반한
KB금융
토지를
17개
##파괴
챔피언십
범죄가
##창이
무너진
무거
자전거를
##기업으로
모처럼
석사
조국딸
사장을
여러분이
현실에서
촛불을
##조사가
에피소
샌프란시스코
거침
##오롱
냄비
달빛
두어
한진해운
##란의
길이다
##움의
##모씨
##ud
정상회의
아껴
조사해서
자격증
쾌적한
힘은
소식에
##광역시
최씨는
들어왔
pr
##해보지
선대
첨가
하나금융
쓰다
설명해
대상이다
않으니
할듯
##되었는데
##공사를
사이코
원격
의아
개혁의
스트라이
번쩍
이빨
여건이
##HD
빨갱이들이
부담으로
오라
싸그리
고독
면적
인문학
싫어요
털어놨다
##군다나
##1000
경부
유럽에서
노력은
TV를
주연
대일
초중
분포
사실로
개탄
부응
질문이
판단하는
할지라도
장소에서
자녀의
관객을
돌봄
##정책이
통합을
이지경
OOO들아
없음을
태어났다
##줄도
적용하는
뜬금
##바꿈
않더라도
##식도
##졌어요
##잔치
고소득
동요
생략
총무
중국발
만들어라
지지한다
##ial
삼청
김천
기관은
청년들이
샌드
수반
추진을
생산을
선한
##맞게
습득
##탄압
##같아
##식에는
가능하도록
현정권
몰라요
거느
신탁
##ine
##달러에
##회사인
대비한
장제원
쓰레기를
조별리그
사실이라면
##스쿨
소지가
A씨를
개선이
아이러니
정세균
대포
되었는데
라이트
시켜서
한마디도
신문을
아미
##했듯이
남들
문재인도
홍수
말이에요
나옵니다
추궁
도데
실수요
##잔을
다시금
##도우
역할은
사랑해
인구는
땅에서
4000
공룡
##1일
결정된
확정했다
블룸
자유의
사고의
CG
주관하는
중세
오신
확고한
촛불집회
전화로
##먹지
미드필더
안은
무너져
받았지만
잘못은
공격적인
부검
네이버는
연결된
##관도
과태료
날라
안하
##영과
이장
##자면
##카이
부부의
진단했다
흔적이
꺾고
##되네
정국
증세
협력해
본부장은
발전이
걸음을
없으면서
환승
받아들이는
총살
나흘
쓰레기가
의자
절반이
TF
경제보복
##겠음
모릅니다
##관절
정치검찰
협회
있기는
##돈은
하루를
표현했다
들렸다
##T는
##우니
##만해도
##인이라고
납입
극복하고
면모를
택시기사
##할텐데
##위치
나오면서
언어를
씨에게
수익이
보낸다
바랄
상급
출전해
살펴볼
부산대
무궁
##저축은행
대하는
동문
반등
재능을
아프다
관계자들은
처리하는
##AE
##진다면
2세
개검
총재는
고객들의
없었는데
없었다는
가정에서
##행복
지도를
기자의
13개
기대에
100명
##시킴
몇백
##부림
##대표가
탐방
어른이
##위원장의
고영
##총선
마련해야
늘어났
전대
마음도
특수한
회생
기능성
##기게
알렉산
##가지를
##파탄
불고
있단
와이프
있고요
대인
깔아
재원
허무
##부진
알려주는
수출을
수용할
매장에서
편리한
수입차
미분양
##대책을
상류
때다
컬렉
할까요
너네가
타깃
간혹
믿음을
공기청정
그때부터
5번
스며
종자
대안이
##84
나들이
구입한
검토할
치켜
일가
기대감이
나서지
못함
못지않게
러시아가
##기간은
최첨단
##전에는
##작으로
매뉴얼
성장한
세수
궁금해
샀다
버려야
학기
현실과
두께
##천군
소정의
않겠다고
세금도
진한
##59
유니폼을
이땅
주당
##스트리트
못지
그림이
전통을
##미와
싶고
##가는게
##tbc
지도자가
신성장
경제적인
##혈을
그거는
쓰러져
모스크바
던지고
방식에
하늘에
##례로
보궐선거
김문수
메모리
전년보다
이불
원칙적으로
배에
2030
전일
산업을
부동산을
##들면서
출발해
##채무
닥터
하도급
OS
선비
선수들
##주간
크다고
##지향
후안
##지난
##민들의
있겠냐
들통
영상이
##지않아
나쁘지
한표
한방에
무제한
##여겨
대회는
밟고
다하는
##자녀
수수료를
예정돼
##움에
브랜드로
수구꼴통
받아들이고
셔츠
##모집
케어
##만하다
##m의
비롯된
적임
##가격이
심층
##베이션
살다가
음란
선생님은
##지하
두산은
맞물려
##빈이
땀을
01
적당
you
깨끗이
시절부터
주도권을
그리는
아닐까요
재산이
적극적
만들어내는
SK하이
배불
KE
솟아
불법으로
포르투갈
공유하는
선량한
##염을
##다는거
당연하다
차량에
민망
독창
금세
창문
등록을
쓰면서
유적
##짓는
각성
여당의
##법이다
입대
해달라고
않던
일깨
슈팅
A씨의
만루
높인
채우
버리지
##냐는
못하지
##공사의
따지고
##수업
제기된다
계파
굴복
##맙시다
비슷하게
폐간
휘말
끝나지
기쁘다
맞추어
##사람도
101
호전
##상품을
한상
그리워
적다
집도
##야마
꿈과
##일러
부인은
톡톡히
뿐입니다
먼저다
##텍스
무방
##론하고
희생자
맞음
영향력이
정체가
두개
파악하는
내쉬
못하냐
자생
##힘을
피력
##재와
빨고
사지
기껏
##드러
방송이
국악
낙하산
수목
불이익을
##물인
탈을
기부금
##oT
##돌고
그러고도
52시간
##입은
##예를
##해지면서
##들에서
떠드는
대신해
그정도
가처분
충실히
입문
##위안
똥을
##TN
석유화학
##친일
쌍용차
옮기는
##려구
않는가
누르고
허술
카리스
지적한
인간들아
건물의
시카고
생활의
드립
가지게
죽지
이쁜
##참모
그후
답은
자유로
투자자들이
짚어
아니요
교육청
##십자
낯설
맞지만
못했을
확인을
##달고
제천
의심을
모르니
##덕에
처벌이
라이벌
입장에선
웹사이트
##리는거
최고위원은
우동
웃어
상대방이
말려
서귀포
시시
##훈의
법이다
않았다면
신호를
한국형
##본부장
능력과
결혼한
걱정이다
헤이
##강은
제1차
##될지
없어야
해석을
신속히
나가지
마련하는
이뤄져야
2000만
올리며
##ep
타워
##가구가
생각해도
조차
##내를
##주의로
댓글로
이철
시어머니
김은
주어야
##대신
일치된
메신저
공감을
##댄다
이번주
무리하게
##전인
박재
##사에게
##시원
부모와
한라
##없으니
##교과서
대화의
##지방경찰청
BBC
원활한
##법칙
선점
##라운드에서
마을을
짖어
감각을
##혁은
사용된
김의
백종
##지원금
##지마세요
현혹
여행객
##막한
달달
잘할
금융권
##터테인먼
##지수가
##hy
##르네
##채가
고양시
창고
##클리
작아
위해서도
##팀에
발이
웨딩
우리들의
망치는
##대상이
쳐들어
재미있게
##맞춤
보호하는
마지막에
이야기도
대검
##국당
안티
북극
유지했다
기무
활동은
돈과
##모두
지역과
류현진은
활력을
##AS
선물로
저승
대원
##하였으나
영동
인구의
쟁점
호랑
수익률이
비싸게
인정해
갔을
급감
예술가
아아
싱크
남북한
장학금을
심정
##레를
##도시로
물어야
실존
본인들이
시행하고
##폭을
문자메
##피가
##ore
망치고
싫고
제10
멀어
동안에
KBO리그
##조각
나눴다
근접
쳐먹고
##봉이
과장은
윤총
성인이
도매
토로했다
##선진
##고리
##기업은
과실
벌일
나오냐
나보다
##ure
##법안
김씨의
##복무
글고
인성이
이해하지
카타르
현명
##94
피해자를
상륙
것의
나뉜
사이가
불태
움직이지
국토부는
1에
비관
광우병
빚어
견뎌
뉴스가
쏠리고
##운송
##중에서
마스크도
##I는
실수로
되서
##형태
돌며
분식
밟아
##무장
급기야
문제라고
어려웠다
1960년대
골로
좌파들의
##에너
판매하고
늘어난다
안쪽
저럴
논평
맞벌이
어휘
아시아나항공
##뒤에
##대회에
같기도
역할에
##입학
##로스
##애애
시장경제
노래가
펼친다
대응하는
무시한
##드림
##201
과감하게
박경
한없이
전방
##포기
기가막
기여한
그렇군요
한녀
유가증권
더군다나
쪽발이
웃는다
사업이다
당신에게
사진과
복사
명명
멈추고
일어서
31일까지
못하니
거부하는
합창
문제야
##이야기
감싸고
리버
호도
브랜드가
아모
악영
노회찬
노동자의
##기관과
적의
##랄한
오리온
알려지지
참여한다
시각을
수단을
외국에
##비어
EBS
탐색
상처가
##평가를
됐을
초보
생방송
통찰
은행이
##마음
##축을
##공약
##줍니다
돈의
##문제에
오죽하면
전망도
내륙
사기를
최성
개조
변질
##상공회의
##이란게
4월부터
국민도
기울여
맞는거
탄도미사일
나간다
장벽
편에
다음주
하고싶은
##주에서
##윤리
힘든데
자유한국당은
부적절한
조씨
안민
##석유
당기순
##니당
깨달았다
##되는지
제공된다
##인간이
취약한
지배하는
등극
사랑하고
롯데백화점
흰색
돈주고
보시
공무원은
##거리로
SS
##삼아
저작권
긴밀한
##항이
실정
##좋게
정치자금
삼는
##르자
항일
##겁고
말고는
모자를
뽑을
보호하기
채널을
비영
압도적인
전략이다
4인
##대가리가
사태로
차량의
선생은
##그레
심재
폭풍
책임져야
훈훈
올렸
물어보
일인
첨부
현기
정전
펑펑
관제
안일
말이나
지구의
혁신적인
##닝을
날마다
천황
##되어서
소비자에게
긴장을
공천을
양키
어둡
안중에도
##회원
나이트
일대에서
눈여겨
##장이나
중시하는
5위
아까운
##전철
자연과
통과한
본인도
용도
수료
혹시나
도요타
##살에
희망하는
시장과
장소로
##밴드
왼손
##징글
연계한
환급
운동은
행사에서
##주주
헬기
토요
감고
##짓은
항복
##라미
사연
##채용
증액
희망의
치명적인
14개
##디에
캄보디아
강세를
문학의
섞여
결여
앞잡이
##것네
몸매
밥은
민영
##의약품
아웃도어
##되기를
##투스
다다
보금
남는다
키스
제조사
미얀마
본인들
경영을
대깨문들은
문턱
내서
구자
상품으로
차이로
굳게
우선적으로
##일이다
주면서
##작용
때였다
부총리는
따위
헬스
머물고
자원을
대선을
섞인
철새
바이어
수출입
파키스탄
##사유
##았으나
안보리
전쟁에
퍼주
##결한
의료보험
##기업인
##페미
##항은
다르고
명도
제도의
마리가
허벅
공지영
노원
주워
##벌을
너무너무
쪽빠리
당신들은
##감이다
강아
##담이
담합
싸움이
물량을
대공
##보내고
민주주의가
지역감정
온전히
단합
##품질
민좃
코오롱
소원
한가지
염색
##하시오
강용
공무원연금
##된거
##라와
질주
국민들한테
퍼주고
##저나
사무실에서
확보하는
악순환
한국지
얼굴도
친구의
여인
신을
제도는
##와대
움직이고
##로선
이사는
##분으로
디저트
000만
맡기
급변
##림에
집구석
공론화
습관을
사인
자신감이
출처
##오의
하에
유동성
거센
##데기
들었습니다
마귀
##것으로
기고
조사결과
커진
리비아
놀라게
필자는
체험할
못가
탈세
##계산
내로
##역할
댓글알바
여당은
그로부터
##대금
명백히
상황이었다
맞붙
최경환
아파트에
진지한
것이라면
차례에
장하
독립을
##어린
감추지
그놈
신세
산소
김남
지향하는
것임
다문화가
##인프라
##블리
##싫어
도데체
관악
##희망
농식품
실로
광산
침범
##항쟁
신영
##국제공항
집중하고
##도르
##업종
##목사
발표하는
멋대로
말든
##갈아
구축해
국유
어쩐지
##시키자
하늘에서
설치를
스폰
전달할
2호
주작
영문
거슬러
속출
예상치
피난
##달이
##값에
정보의
제명
확보하기
운이
##전략을
여성들은
종족
곧장
수동
집중할
주인은
##스트를
##대왕
소니
정신차려
주체가
##비디오
##으리라
아이와
이제까지
막강한
됐으면
##내셔널
##면서요
특징이
하여야
버섯
됐던
부끄러워
철면
지혜를
이튿
관철
동양대
##카메라
##년들
타락
부총리
##갔는데
종북좌파
##걸음
사상이
않거나
##32
떠나고
daily
어땠
발상
##한거냐
지식이
사장님
촬영한
민속
캡처
##매일
동경
포천
스피드
눈깔
되었다는
직원들에게
포상
##m²
대법원은
빼면
식당에서
##만5000
척결
부통령
피해자는
식단
시청자
토착왜
화면을
사냐
##68
붙잡고
교활한
상무는
##노미
187
읽기
품격
지배구조
소설의
##증의
##은행과
질이
##파와
##음료
비판하고
세무조사
꿈도
갈비
감금
가능하다고
국무부
어디다
원장이
제한하는
신랑
앞에서는
준비에
나발
기록은
지난해에
무의식
급속히
더했다
##조심
망명
창당
MV
사촌
원치
탈바꿈
##사회가
열람
특례
겹쳐
이론을
트집
##all
축복
TK
표지
##민들
이자를
##나라로
방송은
##말의
우뚝
정했다
전통적
부리는
그릴
송영
사람인데
##주는게
시작되었다
탐사
##익은
##부상
우려했다
중에도
##위해서
##분쟁
최전
##차와
동거
확대에
일의
검찰에서
여주
다가왔다
자정
뒤덮
##ub
##패가
시절의
##GM
##폴리
증인으로
전하고
반발이
경신
##것입니다
포함된다
박원숭
발전과
시대는
##공항을
붙이고
개념은
되었던
브리핑을
##공으로
이르렀
개구리
세웠
하지도
실습
세대가
##촉진
칠레
안사
있다니
##없나
##린의
그다음
삽입
자들
##버리면
정치권의
많으니
지시한
##주길
이튿날
##장에서는
##경기장에서
헌법에
오게
사이에는
경계를
준우
도미
디자인이
협상에
본보
정황이
아휴
##자랑
도전을
해보자
방문했다
##도전
전승
도울
알아보고
인간도
이런데도
마술
드리고
살리고
그러기
독자적인
곤충
##나갔다
##주라
집단의
건축물
주문을
문통이
국공
홍영
환불
손목
통장
저쪽
화상
관리하고
##체크
랜드
데가
정권에서
##시즘
담겼다
호랑이
##립시다
##당도
신한금융
##3일
집주
사례로
회식
##토지
관습
강수
보좌관
특성에
##해보자
지적하는
구급
세계경제
수익성
기후변화
##ㅋㅋㅋㅋㅋㅋㅋㅋㅋㅋㅋㅋㅋㅋㅋㅋ
서슴
커져
내려놓
죽어서
수필
몰수
시작을
불가피한
신기술
말했다고
##카운
##다시피
의사는
뭡니까
##문제로
사업과
발생하면
##프로골프
숙청
오름
2부
손톱
애는
거쳐야
없애야
##었구나
##마드
헷갈
성장했다
말미
기레
실화
##넘은
##테르
10배
블로
영화에서
용돈
##때로
발동
지켜보는
시인의
생중계
##처먹고
육체
롯데그룹
전경련
이노
팔아서
##셨네
들어오면
##국방
##어린이
안중
모양을
돌을
##권력
보여줘야
통증을
자세가
당직
프란
##하는것도
바디
정식으로
4배
속상
##나가고
##이라고는
##스톱
김두
##어버리고
스포
성의
모듈
##구이
하겠냐
오이
팔레스타
사용자가
잘하면
다카
크기가
이씨
막걸리
사다
싶네
##할래
##관리에
개똥
6자회담
##서스
105
고령화
빠지지
은행에
교육과정
자랑한다
8억
##시험을
##시설과
내려온
186
금융투자
신고했다
농축
##ith
놓는
탐욕
안전성
일대에
지난해까지
부장판
##나올
포스트시즌
과도하게
옥수수
유투브
다친
장소에
애완
약탈
취업을
##마련
투쟁을
모방
양측
베이스
정은이가
업데이트
똥개
##위생
전가
중요하다는
이름의
아래에
문제지만
마땅히
국내총
타고난
동생이
인연
기록하는
싸가지
했어야
풀어야
차마
홍익
임의
##투자가
##생활에
60년
배럴
##시급
않겠느냐
공무원의
##들였다
없는거
분의
사탕
추진한
최순실이
마이크로
지적한다
아빠는
7개월
계획하고
##다이
##단지를
확대될
달라진다
##간접
##랭킹
물고기
사무처
삼성S
난방
##분립
##피안타
##ian
의원님
통지
1970년
요거
싶어도
신나게
맞추고
##P는
자신감
까불
담을
올라와
치사
##션이
구속된
뿌듯
사탄
OLED
앉혀
실버
5명이
드래곤
##낭비
휘발유
이통
소개하고
발휘할
##학교를
선거때
속아
있어서도
마을에
##냅니다
##미술관
현존
##느냐에
##95
##내외
대응이
##요구
편리하게
##광이
기회는
##상태가
업체를
휴일
고객들에게
맞냐
유진
절제
활발히
될듯
##iet
##랗게
나만의
업무상
이메일
방출
트레
치부
##하지말
음주운
대북제재
묻지
##정신을
kbs
##층에서
죄책
##맥주
##조사는
기어나
상당수가
구축하고
결렬
시그
진상조사
##세탁
징용
멈추지
90년대
80년
일인데
정권잡
블라디
나니
내재
##토가
각하
국내에서는
실시해
재정적
##심에서
머물렀다
과언이
우는
탄핵을
최민
잔치
##교육이
세븐
치르는
##가정
김유
전문적인
자격으로
거요
현황을
학년
##현과
보도자료를
##변의
원리를
개신교
교회를
부속
힘없는
##오른
측에서
폭을
나타내고
강경화
교주
개발도
##워야
##콜라
넘이
합산
핀란드
##보좌
거머
##치킨
출발한
여기고
전면에
##천을
미세먼지가
중이며
투구
명단에
##터널
전쟁은
까발
화산
김미
그만좀
속이고
활성화에
##😱😱
딸기
넓게
##가는구나
인체
##한은
유용한
댓글은
알았어
화웨
##테면
넘기는
정부탓
규범
승마
##진행
마켓
사무총장
올려서
미안해
순조
조아
중심을
흐름에
연중
##팩트
##ㄱㅋ
수순
우정
곡을
일찍이
맛과
가던
호박
중앙정부
끄덕였다
회의에
고구마
남산
예매
형을
공연은
3명의
김호
협동조합
증가로
##안타를
바르게
들었던
국민세금
막론하고
경쟁에서
운동에
현관
이루어질
사양
##버린다
##EC
차츰
애정을
블룸버그
##상황에
친인척
##중간
생명과
LNG
도배
바를
새누리당의
1등급
부인했다
goo
좌빨들은
발견하고
아가씨
소홀히
평가할
대꾸
##다오
##활성화
들리는
반일감정
##치는데
신재
뒤진
조사해라
생각해야
총력을
##국가가
검토해
손잡
주상
##사회에
다르다는
건강이
##목은
##그로
포수
조선일보는
러시아는
##46
답다
##겨울
생겼네
##인물
필름
자연스레
단체는
##그렇게
##총회에서
확산을
군에
##익이
박람회
하나에
##올려
불허
전라도는
모텔
아사히
지원과
##거에요
공기가
##세도
많았던
죽여야
##남이
FIFA
유능한
세분
이르게
동계
오렌지
연구위원은
##히기
넣을
##보다가
망한
##종과
반기문
##너는
##운동에
발족
활용하고
LS
충당
끊임없는
코트
##규가
망하고
욕설
##숨에
일시적으로
보물
짓은
삼성물산
의사결
유희
하나님을
쇼트
재가
가습기
##증권은
##층으로
열일
마드리
순간을
폭파
월간
여자도
양상을
슬쩍
##내면서
IoT
장난감
포기할
의사의
홈플러스
출전한
심리를
##대통령이
자체로
##공감
모습과
방에서
추가적인
전투기
리서치
##대로라면
발전소
##만들고
소리도
위원은
현금으로
확보에
약정
지식과
마찬가지였다
대사는
상원의
거짓으로
거리로
지원은
##없냐
##작이
##소송을
구조적
힘써
##마리를
점거
욕구를
의왕
양승태
##침이
불로
wh
초코
아기를
행동하는
쇼를
태평
사태는
##오나
하룻
##다녔
손실이
전한다
선팔
##모비스
날개
황당한
##것임
도전하는
아테
일본제품
높지
한기
지진이
프레스
##과대학
지자체가
집무
비선
##쳤지만
안아
뒤로는
##목표
##척을
미끄러
있었나
##ort
출범한
절대적인
득실
상승을
##섬유
##교실
되죠
거두고
##만든
성질
##루미늄
맞는다
기준금리
잔인한
개최를
철폐
정책위의
원형
선택했다
들린다
사태의
##맞아
들어섰다
가뜩
##것에
올라서
몇개
않았으면
눈앞
빨개
국민투표
평가하고
##모터
서운
요렇게
##베이스
지갑
공무원들이
구제역
무차별
문정
##기관으로
신중한
##광장에서
하다하다
##제도의
##휴가
신입생
주민들
외교를
조심해야
국가보안
전날보다
징글징글
##PA
사살
외고
AS
모비스
불복
근로자의
좋아하지
경향신문
3명을
특급
##장에는
단계로
성장하는
몇명
안이
팔아먹
조경
없었기
대상에서
불안해
모델은
이루어져
##에미
동방
국제적인
공정위는
숨겨진
일탈
휠체
체질
선발로
##공에
SK텔레콤은
##포지
##센스
##북부
반려견
##티가
그만두고
남아있는
##설치
있더라도
불에
배로
##투성이
##발전소
상상도
자살을
언론인
임명한
##돌았다
##두기
부모님이
계기를
심의를
얘길
##억여
##못차
위안화
말아먹고
월스트리트
##가지가
숨이
털고
공백
생각하기
##결혼
갤러리
미화
택시를
공단
보기에는
글에서
##해선
만회
##결의
자리잡고
말로는
나뉘어
반대의
서기
##박살
리뷰
특혜를
쉬워
자기도
##만명이
의혹과
생각하게
이용객
리조트
나옴
못배
할리우드
압류
뇌물을
단백질
왔다고
주둥아리
양평
시스템은
음식물
##엔터테인먼트
일이나
태권도
##패션
사우디아라
CBS
미친다
초반에
해경
##라나
##어가는
제한을
어머니와
마땅한
창원시
기대하는
기상청은
경위를
조영
잠복
꿈에
현실화
##들이었다
매력이
##했구나
만끽
##리케
##박혀
25전쟁
아이스크림
버틸
쓰인
VIP
호날
##거가
##78
급급
##시설에
하차
송파구
진해
목동
존재의
개원
##녀는
국민건강
##감시
##끼가
##대원
##업체들이
반란
되나요
핑계로
가보
##가격은
이건희
##비전
##바는
상품에
깔끔한
올리브
##저래
##극장
엄마를
다크
산업이
잠수함
##듭니다
제사
##해주지
주장과
변수가
못하겠
세금만
##바탕
수원시
교류를
##이동
자선
팬들에게
미군이
변하는
언행
진출에
##판결을
해커
이년
사무실을
정주
일행
##하였는데
가뜩이나
질병관리
사표
교회에
증정한다
엿볼
탈취
유물
도와줄
문준
소비가
임기가
##오스
끝장
끓여
지적하고
##거잖아
맥도
반영하는
##발에
사람들이다
방송사
어린아이
##모르는
자들은
##청사에서
단숨에
난무
쓰레기들이
날인
보습
뜻대로
마포구
트래
02
##하였습니다
외야
오키나와
마당
아이템을
##없었다
HD
환산
##들하고
자유한국당이
장치를
전문성을
소리쳤다
##내리는
대표팀은
종속
##탱크
따뜻하게
9월부터
선보이며
내려놓고
분을
자백
재확인
개수
커지는
추첨을
일정으로
지식경제
부르짖
푸짐
900
만난다
##겠다며
뛰어넘는
성장에
##물가
업체인
고민하는
보고서에
##GC
농사를
##오기
짜증난다
값을
항구
좁아
##페이스
콘크리트
지나간
##쇼를
설립을
회복을
1위로
에버
자수
프로그램이다
웬만한
저러고
##연봉
의자에
싶어하는
몰린
##투자를
옳다
국장
대구가
##위원장과
건물에
##1천
수단이
##친화
참가하는
결정한다
우연
##통계
ch
실업자
개돼지들은
원본
##밖의
한국거래
구치
떠오르고
구청장
때나
1986년
##올랐다
피눈물
절대적으로
테니스
이정권
주저앉
대책은
지원한
불통
신문에
##개혁을
##되었습니다
##었더니
의원에게
##콘서트
왔다는
스노
피하고
아니란
누구든
뿌린
얼룩
한화는
펼쳐진
어울려
볼을
나몰
더운
영역에서
##산다
##재단은
WHO
저번
한반도에
들었는데
창출을
속한다
외치며
연구팀은
##키가
B씨는
편법
상관이
뒤따
쓸쓸
오해를
외래
초라
영혼을
탈모
정리하고
호들
떠나라
법리를
진흥
시장점유
돋보이는
기원전
##왕에
착수했다
##한국당
나름의
소리만
외압
나중에는
미지수
그나저나
굴욕
세계대전
##이었기
단계를
맡았던
##청소
##녀의
일이지만
국장은
40분
원룸
자식들이
양대
우라
조망
##일텐데
##방법을
##프리카
노조의
울타
나오자
시중은행
미국산
받던
통계청
원금
절벽
기다릴
##기며
터무니
당연하지
##나봐
없이도
토해
자존심을
썩어빠진
이며
없어질
##자유구역
용병
03
##구조가
과열
경찰을
##시키면서
정선
누군가의
멜로
이상하다
시크
종교가
빅뱅
중국한테
관계의
분석됐다
감당할
다루고
사제
행렬
아름다움을
최재
최씨
소명
광화문에
생생한
고민정
##전망
인간에게
각계
송구
골라서
게임이
부엉
기본으로
사령탑
수비수
일컫
텍사스
사망자가
거임
참배
뭐라도
사례도
심지어는
미쓰
귀농
##들기
배워야
악영향을
보스턴
##터에서
내놓는
피고의
보장하는
알아차
하와이
신재생에너지
##같음
애정
정권바뀌
당국자는
현대건설
우려된다
60여
데에는
하하하
선관위
애널
108
##남은
왜케
옳지
서너
직업이
없을까
파울
중이라고
##드립
시도를
치료제
정쟁
제목으로
##일드
##코의
소식통은
안찍
살아남을
자슥
심야
##협동조합
그친
푸는
##해줘야
문제점
해대
안심하고
사람이나
계기
히틀러
있니
##국도
지날
##장관은
##프와
무기징역
잘해라
##냅시다
아세안
더럽다
전에도
##치료를
유나이
희대의
##지출
취하는
손바닥으로
눈동
지쳐
성향을
애미
신하
먹고사는
최근까지
지원했다
##나라에서
4가지
생기지
가리고
삼았다
서강
서울역
머리카락
페널
그쵸
##단체의
왜놈
차질이
##궁창
드라마를
##없게
사야
민주당도
이제라도
##세력의
30일까지
데려다
정도만
인프라를
##ork
2로
결단을
동일하게
광장에서
##저지
사원
갖가지
##삼진
대응에
거리에서
##인해
들어가지
재료를
하노이
##자리가
펼쳐지는
##ㅂㄷ
정정
깔고
어울리지
##매치
밥도
우두
풍경을
##지식
##여러분
보이면
노력해야
자국의
목표다
순실이
통화를
지구를
탄생한
##58
##는거임
평창동계올림픽
일으켰
개발했다
##일만
곳의
치며
##지도않
##후는
##책에
시와
##ue
##빠는
##추를
자작
##ㅎㅎㅎ
##체스터
##바가
##좋다
앤드
사무총장은
##조달
얘기할
시간당
순차적으로
##비즈
##인이라는
최종적으로
자식은
지급한다
개최된
하던가
모르면서
필립
##증과
##제이
고부
물품을
일년
##균이
절단
##가구로
##지배
무너지고
권역
전까지는
객실
못하
궁금한
지내고
과거에는
가방을
##업체를
##그린
쩝쩝이
놈의
만들어졌다
샤오
없어진
승리의
컴백
LG화학
잘못하면
머릿속에
예보
어느덧
##욱은
인생에
애쓰
##뿐이
생산성
##반에
놓지
그레
현대모비스
무너지는
##매장
##동기
##위병
공장이
남발
비밀을
하고자
문경
지오
매출액은
##철의
원수
법안이
단독주택
나주
처참
가치와
젖어
제왕
##퍼드
작살
학계
달라졌다
지적에
정대
지면
부러워
6차
행사할
##척이
대남
##딩이
##반하
이사를
##것인가
월급을
##루의
총리와
공정위
방울
로드맵
다니던
폭격
내셔널
지켜봐야
산재
하는거야
법원에서
재혼
##시설의
위협이
개무시
##냈고
비판도
##데다
ES
공시했다
성장하고
##카가
지랄을
끝없이
김영란
부족으로
모시
##거리다
##겼던
보려고
사옥
제품과
알려지면서
연결해
아쉬워
직전에
##노예
유로존
노태우
연설을
정상은
##사업과
왔을
부결
##중인데
과감히
다국적
핀테크
자이언
몽둥
문자를
생각해요
항해
##정리
처먹고
공격에
사안에
끈질
be
이정부
문헌
더러워
애로
유령
김정은은
끊고
빠지고
써도
##번째로
때문일
비주
중남
좃국
선동에
깊숙이
한식
문화에
##진출
파크
##전등
등에게
지방세
의장이
##스러웠다
##패에
##상수
알고도
질본
효율성을
##ment
##법원에
엉터리
원주민
숭배
접할
사안이
산에
윤지오
화답
수사하고
내면서
논란은
발전의
진열
형태가
과자
상여
몽땅
##예금
##트릭
때린
몸무
띠고
들어선다
##권분립
어디갔
인근에서
바보로
인정한다
행진을
제공하기
저서
훔친
헤쳐
콜롬
##시네요
##많다
##아파
3선
급성
소가
비롯하여
##유치원
승소
08
별개로
조계
##바위
모임을
##우파
황교안은
새끼들은
미중
이한
증거로
소스
6명
기소됐다
드립니다
조정을
자질
리베
##49
트라우
벌고
트랜
노력으로
상봉
차등
찌푸
##졌어
순회
지사가
작업은
점진
##리바
우리들
보기엔
부지에
##고발
일어난다
##보육
출품
절반을
##플러스는
가결
재보
하겠지만
샐러드
힘의
설치하는
틀니
돌린
강화에
현실적
정신승리
##ib
불려
주의해야
##코리아는
브로커
멀다
알루미늄
##정책은
450
극복할
성향이
삼겹살
구는
면밀히
방구석
20억
대다수의
비영리
8만
천명
2021년
보시면
##운동이
무마
꼼꼼하게
꼴찌
##되야
신진
##문화예술
##으니까요
아무말
무난
##카와
사용하여
마을의
납세
장본
내놓지
##다는건
##회사는
누구한테
무심
여름에
경력을
##출동
취지를
파격적인
금융회사
두꺼운
5차
무혐의
선보여
노인네
경향을
떴다
투자는
틀림없다
못한다고
##사단
##다닌
어이없는
좋겠네
며느리
##무새
제도다
여유를
님이
틈을
움직여
##하였다는
##라는데
패밀리
무언가를
##법적
##지원센터
엄중한
대회의
덮고
일축
중단하고
물러나라
협의해
반입
끝판
주일
360
밤이
시절을
넘길
##규정
내려오는
##놓으면
필요해
적용된
인정받아
저렴하게
달러의
박은
없었다면
국익을
##버리지
영화제
불행한
철면피
장관에
##신문이
지원하기
##어디
##세여
정관
목사가
정의의
판매량이
이강
후의
현대의
당혹
##끼를
혐의에
##나물
##셨던
인정받고
일쑤
##거릴
후반기
보이게
묶여
##AT
한국에서는
궁극적으로
광범위한
쿠데타
##쿠르
에이즈
표결
받으
##듣는
민병
간담회에서
취업자
인연이
기록할
##률도
역학
##미국
종업원
인력이
언론들은
##AR
대다수가
선심
경악
천문
컴퓨터를
그동안의
혐의도
없다며
시련
제철
지탱
##병원에
검열
충남도
안그래도
저놈
##손을
부산에
돌입했다
미주
주민들에게
윤석열이
##쓰면
제3의
장차
수치를
빚은
꾸미
##ate
예고했다
집사
싫다고
철학을
아키
부장은
자민당
##공유
근로시간
비용으로
##하셨습니다
통역
엄한
얼마전
맘충
##퍼런스
골자로
애들도
폭넓은
##생들이
##리칸
로이터
도입된
안걸
이윽
순찰
되돌려
##누가
##만이라도
교보
이화여대
조치로
##플래
무주택
##etag
농장
각호의
바늘
동남아시아
믿기
바꿔라
시작하고
##없어요
경제활동
늘어나면서
뿌리는
사회와
형식을
2승
입술을
아팠
태백
##교육과
150만
유형의
사우디아라비아
○○
##연습
##사과
##꼬박
적반하
자기소개
무책임한
법학
9억
##격은
생각해봐라
꿈의
대담
신청했다
미미
연탄
##세인
개최한
앞뒤가
업계에서는
googl
불러서
##정원
googletag
땅의
흐르고
이번기
##답시고
없애는
부르며
##놔라
농림축산
정재
##자로서의
비서실장
이틀간
못한다면
오디션
##적ㆍ
클로
##토의
개혁은
내비쳤다
괴로
부끄러운줄
실검
줘도
천문학
조성해
어김없이
##랄까
##쩝쩝
요청에
반대한다
대덕
맛볼
선뜻
운영되고
어플
인도적
스리
상황으로
것보다는
국회의원들
의거
##하십니다
##토는
안정적
본질은
신안
경제와
YG
모기
##다를
욕도
파악해
은근히
생각하나
도입했다
미래창조
아파트의
##서부
변한
##베스
SC
운동의
무얼
##했겠지
노골적으로
탔다
최고급
오늘날의
##죄는
##pp
##해야하는
신고가
이희
##총회를
사운드
양주
호칭
빠지게
국민세금으로
그럼요
##하던가
종신
피고가
고려하지
##ert
봐야지
조성하는
##네스
노력해
파우
정당의
펴고
나열
차질
둔화
잔여
##단체장
해주면
가진다
우주의
제목을
부드럽고
##한가
##할인
해결이
명성
망각
로열
법사
신촌
받았을
팬들은
선생님의
날렸다
공소외
법정에서
##비용이
풍성
가혹
##가구를
신당
##없을
일어나서
기대했다
한자리
표현은
입다
산업단지
뭐든지
승무원
부문의
갑시다
소비를
비핵화를
여사
##라기
뽑고
관통
##느냐는
지식인
점검하고
평창올림픽
자외선
쿠폰
사업도
##시킨다는
아유
##무리
수당
3단계
강을
지도부가
권한이
시뮬
여기도
진술했다
##살아
이를테면
##될까
맛은
##계로
##나왔다
점과
##각각
##IG
##경화
누락
얇은
힘들었다
연산
AR
##날레
##LL
##수영
여성가족
분수
안면
##기능을
꼴을
전력이
##해서도
잘만
대문
가리키는
##부장은
사연을
승리했다
음악이
##씩을
거부한
기반의
감염자
흘리며
남자와
친구와
찾아왔다
유시민이
##사례
올라간
##자재
우량
##배기
상품권
알바들
재미가
지방분
이윽고
사마
과정의
공격하는
고인
쓰던
선수단
##멋대로
##대병원
1985년
항공사
구속수사
수백만
되도
향이
공개하지
저지르고
##소비자
종전선언
몫을
살린
출하
장인
목숨걸고
뭐래
장갑
##율도
최고치를
##살다
줄인
빠져나가
##거같은데
색출
##들며
성실히
속여
만들자
송치
##셨나
무한한
##구청장
유선
신원
소고기
재인아
죄없는
##틀어
상상을
##욱이
따지는
돌파했다
놈을
레이스
안보를
방관
맡기고
낙후
엄지
사회적인
##iz
마련에
세게
운영된다
성장과
##하던지
생각함
지으며
열풍
토착왜구들
그들과
적으로
마찰
알려주
쏟아지는
5000만
서는
너만
드레
워킹
발전할
얘네
사망했다
불문
##98
##민들은
안되니
##연장
##56
심하다
확인되지
용도로
강압
박힌
대강
사람입니다
무섭게
만드는데
강점
##투표를
수뇌
##정에서
마저
##상선
운전자가
살포
##ain
외제
##인양
빤스
설치돼
입어
취급하는
##가던
도시가
정도껏
유튜버
##마로
가평
얘기하고
부동
아랑
문화체육관광부
맞추는
##파워
나아갈
##만하게
모양으로
서비스에
숨기
옳다고
맡는다
##카의
맛도
##아침에
제작된
얼어붙
##싶네
있었지
넘들이
조직적으로
성남시
대우를
어려서
공개할
안함
됩니까
환기
밝혔습니다
SNS에
시한
비열한
이룬다
##마당
##드네
재판이
보나
라스
넓고
##ear
뒤흔
##식단
시작하면서
##노동자
어깨에
삼성을
받았는데
해법을
트렌드
강하고
GS칼
##묻은
저런걸
##아와
걸어가
투자의
서비스의
강기
월평균
아들과
하느님
##이기에
취득한
부적절
뜨겁게
##판의
금감원은
구속기소
##길이다
반발했다
장면은
각인
재즈
크로스
안타까워
당당한
이바지
교사의
##상태를
적용을
이들도
준비해야
체제가
가정에
죄는
성장동
중에서는
정해져
노인들
보신
지문
##먹으면
책임자
박혀
굶주
할텐데
경기도는
##퍼시픽
북방
##디스크
KO
작전을
##일반
##억원에서
누구인지
터라
사람처럼
보아도
백년
헌정
올라간다
삼성그룹
골수
다신
열대
인사에
집요
공화국
타당성
안치
##범의
하지않
쏟아졌다
참된
틈새
여성과
오리지
##싸고
4층
강해
양해각
쳐넣
사물인터넷
알아야지
바람직하지
연구하는
박세
숙명
수년간
등록된
06
동력
섹시
4분
동점
신상공개
에서도
밸런
안다고
좋았
생각하냐
##있는게
증설
##자네
헤지
##완전
사람이라고
이슈를
거부했다
추한
뭉쳐
김학
낮추는
##프로젝
웃으면서
보였던
바나나
장원
출루
##근성
상권
신작
취임한
##둘이
설명한
지지층
신곡
가입할
##는거고
성격의
보임
평균자책점
요구하며
문구
흔드는
##준다는
말기
상대방을
##증상
KIA는
반포
##보존
매개
조성된
무슬림
절친
5시간
공기를
했죠
외계
집안의
하우스
선수들에게
걱정된다
장사를
그랜
##더는
바다로
귀속
부정한
내시
소비자들에게
정체를
##생명은
성숙한
애플이
눈썹
국민혈
치료에
넘어서는
광범위
창의적인
기분을
##매국노
이호
##페스티벌
서민들은
보인다고
##코가
정의와
##DA
##개편
##김에
발산
독재정권
공사는
##근은
방송국
이따위
감안할
프리미어리그
조선이
반공
정씨는
##오늘
##처분을
성향의
자구
비과세
터미널
김인
한미일
통계를
피우
처해
##협은
해결책을
공매도
흔적을
##배치
두었다
가릴
디스크
정보와
1년이
욕망을
냄새를
뒤질
상고를
탈북자
구멍이
##만원이다
조국수호
무상으로
PR
시인은
대체할
이루어지고
##혈관
전략은
##디스플레이
진흙
떨어지지
조선은
악몽
붙이는
연구의
제때
선택해
##대서
##미안
##발전에
의논
부장판사
##했음을
접근할
계집
##구간
##골로
부작용을
이름만
납니다
시민을
##도다
외국계
뭘로
도발을
사이트를
달러에
여야는
순실
##국어
##전에서는
초조
총회
##짓고
6조
해수욕
##국가의
##런트
보여줬
둔다
격차를
국정을
꼬마
기반이
자산운용
고르
탄력을
2개의
싹쓸
치르고
부품을
##내용을
집회에
##꼬리
3개의
간편하게
##승인
커넥
국토교통부
##건물
비아냥
담뱃
시바
아이구
세대의
체중
국민은행
차지한다
유권자
구성하고
##조명
충무
정문
영리
영업이익이
흔들리지
##진료
이루지
이야기로
저런거
없거나
선동하는
치르
유지해
코메디
태도로
소설은
거치지
성조
##해수
##관련기사
기능은
여부와
존재할
감성을
주를
오늘부터
공개를
##대면
##수원
소개해
욕심을
개체
수위를
심장이
문재앙의
두세
한번씩
채우고
왕은
각별한
링크
진료를
걱정하지
##상태에
개돼지들아
시의원
##했거나
노릇을
4명의
##가짐
자네가
소행
기다렸다
있는건
물건이
##조성
에르
좋냐
놓을
윤곽
방콕
여기저기서
##이란걸
당뇨병
상반기에
되잖아
부여하는
수출은
라운드
숙소
생생하게
다룰
수첩
일상을
증시가
스테이크
한두번
왜이렇게
고유정
빛의
미래창조과학
언제고
무릅
신빙
##대다
발끈
##교수는
협력사
검증을
코를
무신
이청
이성을
고찰
아는게
저금리
있소
돌릴
높아지는
보이냐
돌아오지
가정이
섹스
것이오
속해
##팀과
##못할
됐어요
자각
책으로
기사도
광주에서
찍소리도
지금이나
됐지만
순방
##볼까
못했다고
당사자가
북한과의
당에
##나기
하루도
청담
##준호
##IST
낮고
못사는
계몽
##분할
무지한
##했는데도
지겹
벼랑
##장까지
장애가
물의
##깁니다
##신고를
자한당과
군대도
고통이
기운을
학사
따를
보았
##전당
##76
논리적으로
종편
ㅋㅋㅋㅋㅋㅋ
##orea
1급
차량은
드레스
##ight
칭송
넣어서
##관계의
소득을
차별화
박사모
묘한
새기
##비율이
미수
과대
하태경
수사의
재일
베스트셀러
##일가
시장으로
##단한
주에
##왔을
독일은
##채는
박근혜때
가솔
당면
신생아
것이지요
만들었
##ll
쓰레기같은
라틴
일인가
##72
##경쟁력
언급하며
전달하고
강진
아토
모르겠습니다
##새끼들이
패권
복제
고아
타격이
학교폭력
포기하는
그칠
손절
나비
주며
##나오고
플레
##추적
##미사
할머니의
50만원
##환경이
##래가
##지은
축제를
##안하는
실패로
청문회를
##금리가
제국의
한통
움켜
오지네
올랐고
400여
내렸
##넘들이
##디다
성장세를
업체들은
##폭행
##오르
출시를
조구
한결같이
플로리다
잘한다고
##구녕
시인이
##락으로
##했다며
조직에
군인이
##우로
사퇴해라
꼬리를
매달려
김건
보더라도
##없애
요구된다
캐주얼
전당대회
있는것
##하고있네
##포장
##국가로
여동생
##ant
은은
삼성과
DMZ
공판
##실적
##연구원이
왔고
그리도
영향은
안전사고
반칙
##했잖아
비주얼
개정안은
ㅂㄷ
신흥국
동반성장
트리플
와우
전원이
##라고는
파도
##❤️
헌법재판소
화살
방지하기
일본에게
생활비
##관계는
글자
##없습니다
늘렸다
있는거지
청문회에서
##ge
재촉
##득한
숫자를
감사원
##겟네
호소하는
좁혀
기자간담회에서
올라갔다
마셔
분위기에
공수처가
주십시오
유도하는
소유권이
영감을
##스케어
식이다
생각해보면
시궁창
##것지
스님은
전철
##덩어
아리랑
방향이
떠들고
##물며
할당
행사로
파악됐다
도움으로
서로가
치른다
대졸
세력의
지방에
핵심인
맥락에서
줄여야
먹었
보험료를
다물고
정한다
사람이었다
부모들이
유지를
두려운
##균은
이런기사
사과는
달인
아우디
단독으로
돌아간
임을
##시대를
반으로
##DS
리더십을
##그마한
실증
암울
뒀다
##이는데
##방식이
##지정
##증후군
##드나
미국에서는
유영
막힌
임산부
감염된
심히
##기관은
주요한
씻어
모를까
자꾸만
하나이다
고성능
지중
어디에도
##부턴
양국의
해줬
31번
한성
가져가
##박사
판매한
##회사로
유무
하원
귀걸이
계단을
##씩이나
깨닫고
##할때는
없었으면
르네
이상적인
달할
임마
간다는
문재인씨
검은색
규정은
##플루엔
이와중에
틀림없이
뻔뻔하게
명분이
##하려다
개웃
풍성한
보컬
##군에서
당진
필요하고
독거
##사회는
대변하는
마이크로소
스타벅스
요구한다
이나라를
대책도
소유한
어른들이
병에
정신못차
챙길
##질적인
넘으면
기대해
목사는
##녀를
##신으로
MVP
거지같은
착륙
##종목
정권과
담당하고
배우자
##비치
1945년
싶었는데
닮아
업고
##정책과
표절
서비스로
환자들이
광교
##들일
시청자들의
지구촌
안타깝네요
구슬
##대회가
MOU
볼턴
성북
이루어진다
디즈
##퇴직
부추기는
매스
##성이라는
극찬
감정에
개념으로
##뜨고
안전하고
될까요
엔터테인먼트
서사
포부를
돌아섰다
##이냐고
거치면서
접촉을
##식한
수치가
파인
조국도
미국이나
법규
회의가
최정
##1억
범죄에
약점을
찾아오는
중소기업이
##웠지만
미르
불명
청와대를
요동
변화하는
좌석
6000
전통의
나게
존속
YTN
제자
금수저
있다는게
##탄이
오후에
자릿
투여
치졸
능가
##다닐
##블로
올라왔다
다큐멘터리
눈도
현저히
##구치
파스타
미술관
애플의
##장으로서
백번
##시키려
##열면
호위
어디서나
##글을
막은
기온
뿌리고
사용하기
요금을
##나를
촛불집
분별
모르는데
이웃을
농성
선에서
죽음이
함양
##경우
##릿한
대미
알리기
우리보다
올린다
무례
20세
##비에스
##돌을
국내총생산
##보와
달라지는
1조원
뭔소리
##맞이
부문에
사람들로
##시키려고
김구
동메달
제자리
있었어
물로
청와대로
교육부가
고치
##못하게
밑바닥
좌빨들이
앞바다
구조조정을
직원들을
새퀴
이태원
##주는데
##수수료
명목
대표도
기점으로
인물은
고향인
##ast
정신들
동물의
살려고
희한
도시에서
피고인의
##통한
날리고
병원이
화재가
단말기
아니겠지
이루어지지
건설사
##무늬
매크로
밀가루
15만
안쓰고
참관
전략으로
부진한
뮤직비디오
무엇이든
상원
아쿠
학자
대대적으로
뿐이지
붙었다
동원해서
휴전
칭찬을
단속을
외환위기
sh
세월호는
##교육감
비위
즈음
요시
##패의
실천하는
사용되고
여론의
대사관
##겼고
쌀을
거치
믿습니다
서열
여기서는
냉각
카메
##또한
##등은
못합니다
##학부
되는게
생계를
페널티
회견
설치할
##메리카
##되는게
##김치
이기고
생각한다면
주기로
한푼
##껀데
업무협약을
달을
##까고
적용했다
쉬지
때문인지
혈안이
사회로
보험사
예방을
##차원에서
액세서
특화된
배는
##노스
건수는
되야
바가지
이전에는
젖은
##랭이
##현장에서
##품은
럭셔
때려잡
안봐도
관리할
시점이
능력에
##지키
해달라
관대
퇴원
##이라는데
강연을
낮추고
봉투
간사
작곡가
줄어든다
경위
##한다며
갤러
##부산
만져
##ies
정치인들은
##당초
보던
수돗
##받아라
그랬던
남북이
통하지
##거리면서
가깝게
호황
들으며
문예
노력했다
공정하고
인도의
환경과
불화수
대응하기
대타
수납
##되지는
수십억
외부의
##빈의
직영
혈관
내려야
복직
아비
##본부가
구조로
노력과
남양주
지금까지는
AT
##스럽지
외상
##릴라
이토록
리드
은메달
##79
뻔하다
사장과
종교를
##해보고
극도로
리처
당기순이익
냉정하게
목적에
##학술
##자니
하루아침에
비서관
연구원
걸리지
남과
이제서야
뒷통수
영종
호평을
##00년
마련돼
홍보를
1950년
서지
##장악
##했음에도
##은이
코칭
##키들
용감
##장치를
경산
극적인
불법을
##성이나
아니니까
##수학
CS
해리
정당화
크리
##희를
장편
저들이
하소연
이완용
되새
않고도
갈등과
영재
삼은
국회의원은
대결을
##OP
##주들이
WTO
##처로
내준
녹화
일본가서
아이들도
##되므로
북유럽
없어지는
그리스도의
변했다
후려
##리거나
노인은
##하단
##리얼
##5만
막장
말없이
##심사를
세인트
4월에
게임은
지나가던
무기력
건넨
##조원을
Th
##름한
##리조트
상사
영화관
물러서
##인거지
무대로
수퍼
##새끼야
발표가
질문에는
##끼야
억울하게
##가진
정당하고
방사선
방송인
올려놓고
##난리
씨도
##ㅋㅋㅋㅋㅋ
예전부터
안도
##이었으면
예쁘게
상설
한다며
묻는다
청장은
##동부
존재로
의상
모으는
##소환
연루된
흔적
나뉜다
면치
누리는
60세
부탁을
버젓
10개월
운전을
정제
중인데
마스크는
낙마
반정부
육성을
5월부터
지역에서는
손아
6월부터
브렉시트
업적을
##지우지
##양성
##설은
펼치
밝고
예년
야스
건강과
하얗
삼성전자와
폭발적인
설치는
경영에
##해야된다
들어가야
논란의
3당
##짓이
민족주의
주최한
혐한
##제도는
관계자가
플루
포함되지
요구되는
변하고
포켓
흘리고
먹게
회사로
1960년
단결
부럽다
바른말
우리한테
사회악
쓰인다
지켜본
국산화
희생을
둔갑
조속한
나왔습니다
1979년
사이즈
기도를
##발사
에프
마지막까지
im
다녔다
장점이다
##캠퍼스
릴레이
정이
##살고
제대
주식형
맡길
중이었다
경험하지
##재에
회색
결정된다
##마시고
7대
천하의
굵은
따지
공문을
싸구려
않으려고
연결되어
가하고
검토를
주중
턱없이
##신다
어떤지
##쳤다고
총력
외국인은
치러진
학창
한편으로
##테니까
##이었으며
폭스바겐
아름답게
하룻밤
##귀한
##주어
18개
흔들리는
현실로
국정감사
##ical
벌인다
##섭은
사실이지만
시행하는
성소수
##처에서
메뉴를
환경오염
업적
경력이
먹으러
시너
1점
못하는데
##교육청이
줄어들었다
뽑아서
##항만
##했었는데
가지의
##야의
지롤
##챔피언
달성할
감이
관장
##베리아
조선중앙
이야기하고
계획도
연결되는
깨끗하고
흔들고
1000만원
노년
##측에
할부
인민재판
번복
호투
필요하지
1982년
몇달
어필
전달한
차근
04
##백의
서산
투자자들의
##다가도
초반부터
##컴퍼
##했어도
사용된다
가구가
기간보다
소름끼
여러분은
하듯
##자체
애널리스트
인출
업계는
힙합
##차단
240
인상에
##느냐고
심도
대출이
어린이들이
엉덩이
압승
당정
삼천
지점에서
##여고
공소시효
차입
##해야죠
경각
것에서
열받
강화하기
##장으로부터
##시계
##기사를
태어나서
금호타이어
사고에
기다려야
눈가
조선일보가
물가상승
정의당은
열두
펀드는
만나볼
논리적
팩트는
환자에게
힘들다고
웃겠다
한국사
내려앉
측과
않았을까
폐암
##ect
니도
무역전쟁
대구시장
류현진
내리지
피하는
준비할
지뢰
지사의
박정희가
##져요
모은다
##해보면
##줄은
논평을
기동
##남기
게으
다가올
광주의
최저시급
반값
무모
##아빠
따르지
##산업에
우발
##계획에
감옥에서
만이
살처분
증가에
SNS를
청년이
멀리서
확대되고
다르다고
마땅하다
비스
형사처벌
벤처기업
감사하다
유리하게
나이는
합참
울음
몰랐던
수십년
##것냐
사례다
팀장
조윤
7명
행위로
재외
종부
전문가의
부흥
기본이
보유세
모양이었다
연안
직속
기쁜
##대국
공약으로
들어오고
안되냐
보도한
##수기
그때도
##ike
김우
##업체는
전속
했음
배수
이러면서
성역
불사
##하는거야
나무가
토왜
반가운
뻗어
나경원은
보호하고
애플은
총리를
몰카
때문인
빼놓을
노동자들이
마스크가
어벙
##언스
##박람
증거는
70여
모자랄
허용하는
질타
##키아
후안무
드러나고
즐거워
기초생활
이랬
이치
감추고
찾아보기
오토바이
뉴스는
레인
선원
##스럽습니다
배웠다
##결과가
소리하네
저감
무당
##줍시다
소개한
##무용
궁금하네
주목하고
유린
##지사가
노망
성적은
보듯
띄게
에혀
우즈베
접대
질적
2기
할게
##담은
못하네
배우가
죽음으로
상속세
꺼냈다
대는
##보지도
날아가
##갔던
몰리는
바래
이북
##은혜
먹으면서
##지사는
2개를
저술
##업자득
짐작할
한탄
권위를
##업무를
서남
총파
사치
##니스탄
##대표팀
모리
초래할
간장
포스팅
미치고
관측도
초토
급진
잘먹고
펀드를
알아요
사위
띄워
그돈
오타
있던데
터지는
탱크
##학교에
건물은
사안을
전문가를
##빨아
정신차리고
나자
무고
장애를
유방암
본사에서
##피니
##송이
표적
좋으
모양새다
유모
허물
받도록
기업도
기숙사
정치와
지리산
이뤄져
##SK
대회가
통일이
조선인
비빔
손가락을
군포
소유하고
거니까
##뿐만이
##경으로
##마리가
그전에
만나지
갤럭시노트
무승
##될듯
파이낸
이전을
##방학
인재가
센트
했었는데
일반인이
서울시의
대구시는
임기를
진행을
개누리
가리는
서비스도
안락사
준용
##당국
노르웨이
늦어
김신
두부
##이었어
귀중한
때리는
소진
##연기
부위
방화
##선한
##곡이
떨거지
당하지
신체적
확인하기
친화
##요리
##소득이
너한테
##명령을
니미
하반기에
쌍둥이
침을
무안
입구에
마음속에
질러
거들
도중에
천사
포함하는
##주제에
OOO이
우려하는
매일경제
갔던
##베스트
##찬이
싸다
엄격하게
대서
이겼다
19세
실체가
후보에게
고른
##가보다
법조계
노린
경복
마운드에
콜롬비아
테이프
주장하며
찾아내
셀카
측면을
자극을
신고한
녹지
##1조
조항을
지수는
jtbc
기아차는
##공원에서
적발됐다
안전에
해병대
##면제
흡입
주유소
아모레
치과
독재를
##졌는지
특집
물과
광진
단지는
녀석이
부지를
어업
102
듬뿍
단기간에
프로그램도
##오오
몇천
##만원에서
2위에
시연
##직에서
체코
##회의는
##소프트
팩트를
브레이크
프렌
##43
되었으면
할아버지가
##그림
천년
순위를
한지
치열하게
교복
트윈
수중
##교에
후원금
국제적으로
김기춘
두껍
추하다
꼬박꼬박
카를
##보라고
##데도
산업에
싫지만
외부에
정황을
##들어가
바보가
예수의
우루
부끄럽지
##죽이고
##받으며
사라진다
##바람이
##안된다
##내내
정부나
게임의
##서니
친구들은
이정현
그때까지
은평
토나온다
##병원이
##엑스포
이러는
##정치를
##앤젤
존경합니다
있었기에
기름을
##터와
금지하는
맡는
의심스럽다
4개의
야심
연고
민자
인수한
##중소
제공했다
국회의장
극복하기
사회생활
##마킹
##볼넷
##더기
트렌드를
앞장서서
구속영장
##6000
하던지
해결하고
아우르는
왜곡된
##폐지
##하시네
하마
품에
18대
마련된다
등급을
직격
태우고
##수산물
솔직한
않아야
마무리했다
자라는
흩어져
안뽑
변론
스티커
뽑아야
시트
용어를
안았다
애국자
이르고
##반은
국공립
성장의
##모아
이런일이
허탈
##부양
파업을
학생들과
노력에
명실
##표로
다가온
##망정
##났다고
##미도
말들이
##렬하게
관계에서
##프레임
선풍
매춘
안착
##귀가
빅토
무게가
수박
##지않나
##가는거
위함
가미
화면에
육아휴
낮았다
비판적
이네
현대백화점
재앙이다
고소한
일상적인
오르지
조로남불
생각하는데
##수화
가르치고
꼬라지가
한국노총
선택은
지켜볼
학위를
##청탁
##종이다
자업자득
이번기회에
원하고
무자
붙잡혔다
그림자
대안으로
호화
짜증나
경사
만들겠다는
김밥
서로에게
초미세
민관
유리하다
보이면서
겉으로
##찬다
급증했다
순진한
##급은
숨어서
##증가
문제이다
##질이나
논리는
##공학과
제1회
최연
##할거다
광화문에서
메갈
##소득세
##고속
우리민족
육십
구매한
제목이
헌금
4연
캠퍼스
##근을
##물질을
도구로
NO
핵심적인
##공장을
##스톤
망원
고도의
발암
##행위로
들려왔다
이마
질렀다
충실한
##리기도
반출
##범으로
an
아닌것
시민과
뒷북
장악하고
##하냐고
신봉
멀지
주제는
1984년
반발을
방구
털어서
해치
##하리
세로
청소년들이
맡긴
현금을
갖은
기량을
뭔지도
##트럭
정책적
공격이
중단을
팔꿈
##진흥원
쳐다보았다
해결에
주위의
열이
##중지
##래의
폄하
##하려던
외교관
뇌에
사적인
##바른
##물질이
두면
##여건
조작이
##거려
물가가
##정말
피겨
속삭
구태
겨냥해
##공사와
명칭을
경청
##하셔서
퍼포먼스
10월부터
정찰
##회도
웰빙
붕어
##니지
태블릿PC
현안에
공급할
어쩌냐
그거를
때처럼
##아버지
좌지우지
##수있다
빚고
7시간
##들인데
18세
미안한
상위권
연재
##드냐
삼성동
##검증
##맥을
산다는
충주
윤성
지금까지의
정조
##전이다
네일베
지켰
농림축산식품
##상거래
##모르고
획기적인
이인영
강변
맘카페
환하게
여대
##의무
##엔지니
어디까지나
청량
##지시
프로축구
25년
##4천
##자산운용
##사자
변호사를
군대는
이어지면서
걸리고
고종
##되니까
전하
중국이나
산이
유치에
지속가능한
재판에서
할매
만들어놓고
마틴
##중단
##후보는
참여가
방문할
김홍
##형사
안전과
해소를
전세계에
세워진
면을
오디오
##한거지
빼앗아
##바꿔
2TV
도리
보편적인
##하더만
불안을
오래전부터
클렌
준비된
불안감
영광을
아동학대
침수
절대적
집중되고
사표를
주민들을
연예인이
환율이
심부
완성차
어마어마한
핵개발
지나는
언어로
참여연대
##머리가
앞에는
남로
##인원
그러면은
프로모션
듣는다
알라
어버이
드럽게
망치
도시에
##망의
##액에
성서
기하
박람
주어진다
네팔
엑스포
##무효
##였는지
개개인의
토트
거액의
젊고
전폭
효력이
신음
가리킨다
면도
##보려고
직장에서
말았
부어
##찬은
##꾸라지
고모
그러는데
##사냐
영역에
세월을
소용이
두달
지지자들이
중이
기재부
입성
##운동은
원칙이
허구헌
사퇴하고
사람들에
에티
부조
필요에
##oul
조치에
##안하면
살살
아쉬움이
##레는
맡을
부사장
최영
##공사에
시키면
##스트가
가족에게
이목을
조양
##스프
소송에서
보증금
##이름
생산된
약자
로스앤젤
가솔린
솔까
알아볼
의무적으로
##갔다가
알지도
라인을
명분을
형은
소를
생각없이
느낌이다
이것들아
한국전력
통합진보당
##순위로
한국산
강민
자부심을
무시할
이걸로
##손이
모친
매너
세워야
생체
결국에는
##디움에서
개나소나
일본산
ETF
태안
6명이
김도
##박하고
씻고
집안에
사건에서
않네
까다로운
##아픈
정중
검사의
판시
나타내
그제야
2030년
듣게
맨체스터
대구를
회원들이
##공단은
소프트웨
새만
재건
##ollow
심각성을
표가
##ha
모였다
참석하는
반하는
##하셔야
##막은
##컨설팅
론칭
##됨으로써
노동자들의
역할도
No
현대캐피탈
천벌을
##위성
굳은
당나라
부리고
한ㆍ
##지기를
##본데
권익
##절에
확인이
##느라고
서울특별
##주네
헌법을
구출
##결승
개발할
##레가
##대사관
버림
안좋아
엄마와
제발좀
아기가
쓰냐
한국인들
양천
ㅂㄷㅂㄷ
국회의원을
목회
샘플
##라면서
이동하는
당은
살을
메시지가
##면접
역사에서
부류
챙겼다
##티지
끝은
단장
줄였다
결합한
보이네
창업을
죽을때까지
조사했다
##엄한
생각나네
고용노동부
그들만의
##됐네
기웃
생겨서
한국인은
##정부를
일각에선
더민
차관은
효력을
담화
후지
아니오
2008
고충
상대적
논의는
개발된
##넘어
맹활
빠짐
##포스
번은
덩어리
학교와
등장해
종특
트윗
악수를
목소리에
아래에서
깨우
분야가
맹목
오징어
않았어요
고유한
가든
##수첩
나가라
탁월
##나오네
표했다
체인
에너지가
아메리칸
붙였다
지게
적절하게
##300
마사지
받아야지
퍼붓
내일은
##유발
##걸린
뭉가
##갔을
##선다
영화로
눈먼
대표에게
카라
적용될
##무진
자연히
##ust
2012년부터
언어의
보이나
불안감을
인터넷에서
강화했다
떠나지
남게
뛰어들
자리로
입국금
경쟁에
정치권이
##개도
##무라
저것들은
언플
먹어서
시ㆍ
##중앙회
의지와
노스
살아가
생산하고
##느낌
프로농구
디자인과
개최되는
계속된
복지부
가둬
기관에
돌이켜
꽤나
##하였을
술이
싶지만
앞당겨
챙피
충고
의욕
이밖에도
인근의
##브는
바뀌어
저러니
##디션을
점검을
서울시민
송환
부회장의
보금자리
밤낮
노력한
의견은
4학년
옮길
올라섰다
단언
토양
전국을
##하시죠
##교부
받아도
불가피하다
##96
##맞춰
다니지
이효
##하니깐
갈등의
노사정
섭외
##곡동
볼륨
쓰레기는
##내역
한나라당은
보조금을
인디언
남학생
까마
문재인이가
예상을
졌다
외국의
잔류
##ky
##이었다면
##연대는
##사건을
오빠가
##기사가
머니
##락의
국도
##으로의
있구요
성도
패배를
게임에
발음
세번째
결산
##마세요
드러날
과징금
정신의
##IN
문제점이
한명이
##물류
궁리
사이클
교감
딸과
11년
해당되는
처벌해야
듣보
교수로
지껄이는
대통령령이
국정농
소리와
##57
구매하는
보기도
장단
외쳐
##날에
종류가
진보가
수장이
장소가
##봐야지
위원장과
##셨나요
##여부를
나이로
규모에
한양대
거창
한순
그런다고
의무화
##42
과정과
잔을
##논문
덩달아
리스
연면적
겪을
친이
부당하게
다시한번
걸림돌
음식은
바뀐다
화염
제시할
저것
상임위
##남의
##면과
##틀을
함께한
미적
벌떡
좋았던
보내지
년에
실시된
낙인
한판
##스테이트
팔이
##발광
시스템에
접근이
부패한
벌이
##호도
정신적인
##생으로
비판의
##부한
##구단
선봉
Un
단거리
양양
대전시
벤치마킹
주니
교훈을
##uc
##호기
어우러진
비켜
성산
##공정
##렸으면
해에
급격하게
도리어
하지는
버블
스탈
100m
##티의
겨울에
긁어
30개
득점을
광저우
##불능
시작은
##움도
영변
이관
힘에
##상황이
필터
##그렇
매트
의도로
다음엔
미션
어음
##졌으나
지우
훈련에
##허가를
5천만
반항
##장소
힘들지
##버스를
효능
만나러
먹이
앞세운
갱신
월등
차장
수행하고
##오카
말이되냐
##포터
##평생
시중에
##겹게
이사장이
대깨문들아
원안
##시라
대기업과
아랑곳
##였냐
상자
어지간히
최고로
부모도
특허를
합치면
##전국
이문
##감각
총체
관점
1심에서
##하는데도
전반을
교육과학기술
두들겨
날도
연구진은
경우엔
2011년부터
세기
##연구소는
사람에게는
중고차
초점이
정말이지
개정안이
코코
말하는거
출동한
검찰개혁을
생산한
독보
##엔날레
기침
왔어요
많은지
이름과
##필드
버린다
다양하고
바뀌지
학부
최고다
울산시
발전시켜
내실
때로
충동
오세요
##로에서
하나님은
##거린다
저들은
현안을
축구를
제거하는
##아베
##혁이
언론도
공감대를
단장은
필사
기사의
압도적으로
글과
##나와서
진리를
데뷔한
최하위
##노동당
인류가
##PP
책임지
품질을
##더를
존재하고
피는
참가자
가려고
책이다
지녔
##군수
##분해
반복되는
신념을
IBK
종자들
##봤습니다
##창에
부스
분비
##4000
여적
##차이
기초로
기능도
참석할
치료비
못하나
번갈아
대상자
총선이
이루어졌다
사항이
as
빈부
합당한
굽신
저에게
처리가
##적이지만
코믹
언제쯤
인터넷으로
잠겨
##겼다고
태영
##시설은
장악한
찍힌
복종
##보장이
입당
##ㄱㄱ
정신질환
##미르
가구의
##같지도
##방식으로
이례적으로
누군가는
유급
변함이
맞춰서
지원도
##국민들
드린다
사랑합니다
꼭두
요원
이공
##비판
전세가
##일때
당신같은
##엔터테인먼
뽑았다
##50만
##FP
물질을
출신이다
##지않는
사람으로서
레몬
##라노
존경하는
영국은
엄연히
UAE
##치냐
불확실성이
##배당
빌린
##발은
##령에
일본어
갈등은
마르크스
시점을
##되더라도
식별
적화통일
몇일
말합니다
달려가
암흑
##게이션
가족들과
##거래가
스타일링
제일모
구비
내걸고
하구
지급한
더하면
##지금
##그리고
영도
평안
명분으로
##여당
떠받
똥인지
보내면
2점
과외
##출판
에라
생각난다
오지랖
민영화
상세히
안개
일본보다
이규
##탱이
##틀랜드
할애
##워라
공허
분야로
노인의
##평이
선발한다
루머
싶냐
창궐
여건을
폭도
추신수는
반쪽
##원으로서
내건
막무가
맑고
적발된
동물을
역쉬
##리노
금융감독원
제반
영상은
종목은
테스트를
있을지도
##거니와
승리가
공부할
비교가
기업에서
높아진다
감상할
9개월
이들과
동맹국
지시에
투자하고
러닝
##권자
나폴
전기요금
##벗고
속셈
##실천
어이없다
말해라
##놓지
작용을
##트러
부쩍
궁금증을
##피셜
##옷을
뿐인데
증말
##버섯
고의로
넣으면
##믿고
by
편찬
##디의
그것의
자랑스러운
신정
간접적으로
법정에
국론
##olog
채운
##쓰기
토막
##보낸
봉건
##중국해
방지를
보여야
흘렸다
구성했다
치중
민주적
컨벤션
소통하는
탓으로
##54
포스코는
평상시
인권이
영위
##문이다
##졌냐
차릴
하기에
밝아
일사
##내리고
월스트리트저널
양극화
맞아야
공평하게
##성장을
아이언
풍년
하는거다
기한
##장려
##해져서
220
시도한
대통령이란
연못
재앙이는
했어야지
사고와
소통의
##라는거
##짱깨
김의겸
##쇼핑몰
난리를
##기관에서
이야기할
봐주
산타
헤매
총장님
##미수
##도한
##처의
1이
가족들의
##철학
시작될
일반적
##시리
그려졌다
지만
##열은
##다니면서
낳아
##하기전에
용서를
의원직
게시판
유학을
유람
다수가
1983년
실현을
PB
우러
조성하고
개거품
##드려요
##ES
초기에는
무관한
잃어
지정한
특성이
창의적
연신
선언을
충격이
경험해보지
글씨
유럽과
공항에서
만장
기업체
특히나
새끼는
아베의
공동의
전자상거래
##부인과
##ID
이용이
범인
공산주의자
맞대결
올라오
숲을
후폭
지침을
##글로벌
공관
##링크
##박근혜
몰아넣
##차근
##배의
대나무
완주
속지
쓰는데
말미암
불분
고생이
사건도
주인을
부동산에
2년을
6번
올시즌
고공
공언
로맨틱
정치꾼
안전관리
##야는
##명씩
지능이
500만원
있답니다
사무실에
##임대주택
인원을
한국GM
부려
애초부터
이새
##덕이
박모
형성하고
일이라
정체성
마니아
##편에서
무색
고운
낱낱
서울이
끼친
오가며
배타
제기하는
KEB
대내외
요런
묵시
##MA
스마트폰으로
달성한
##노조는
##퀘어
##업계가
범위가
점심을
금지하고
it
홍영표
비행기를
##실장이
전문가는
발발
정의연
##엔지니어링
##백은
##ond
넘고
##해지기
고루
단어는
##ry
동상
##검찰청
70년대
국보
영산
##리지말고
아름답고
떡볶이
통수
##스토어
중요합니다
없으나
편가르기
몸무게
획기적으로
설악
없어지고
개인과
허구헌날
의혹도
확정됐다
보스
것들이다
연달아
##사전
정신적으로
투자와
2013년부터
메르켈
버젓이
말인데
놔두고
알지만
그루
##레스테
##1만
보험금
##하는걸
정상회담에서
##나보다
보고서에서
##사진을
##보험은
도둑질
##내로
프랭
사업계획
CGV
물갈이
택한
##오르고
##놈도
피트
입학사정
##ran
완성된
계시는
##넘게
공개해
주도하고
다운로드
아님을
내려갔다
변수
업무가
다자
나몰라라
이해와
호들갑
저것도
##회장이
##구정
개최하고
##광주
##틸리케
개소리를
삼권분립
##GA
몬스터
물결
##치즈
지급할
위반으로
##위기를
##거지로
빨래
말도안되는
##족한
문자메시
대본
윤상
##키지
바울
##싶어서
갖췄
미만의
그렸다
기술에
경험할
3차례
박명
브래
##았는지
로펌
맞는지
공채
쇠고기
바라볼
아시아의
접근을
##할수있는
신기한
여론조사에서
유지하면서
만족할
창간
따라서는
박사학
자발적인
찍어서
플레이를
민주당에서
증강
##줄게
증가해
가치도
의문이다
결정하고
지급하고
드라이브
대리점
일방적
공직선거법
##협력을
신뢰할
쪽바
변모
포위
놈들아
하느라
##진도
보다가
##ㅠㅠㅠ
일제강점기
수락
##워진
##먹었다
##크랩
지지율을
김원봉
##6천
발걸음을
인해서
때때로
다름없다
##되도
요청할
손님을
##속도
회사채
거래소
응답자의
비공식
##란하게
암시
##53
전이
좋아질
한달에
아찔
##지점
##디를
삼성에
차근차근
도착해
공세를
왕자
합리적으로
극한
최진
부르지
관광객들이
그림은
타도
법관의
##ㄹㄱ
1000여
피에
400만
인정되는
얘긴
13년
응원하고
남아공
개구
선의
아작
마음과
겉으로는
들리지
플랫폼을
아이패
그당시
박준
트레이드
단체의
올라가면
낳을
소관
총장의
파악한
##소니
권력은
##선수권대회
국수
지장이
##볶음
외부에서
활기
한번은
글쓴
브레
커지면서
특목
돈받고
책임도
똑똑히
##말이다
내세우는
저정도
거스
제지
형편이
놀랍다
##념이
제기하고
광대
조공
부모에게
법적인
dog
##원자력
검사들
찌질이
함박
흘리는
보탬
신청하면
건넸다
살펴본
기능과
거에요
태스크
조희
##정권에
나왔고
퍼주기
차갑
화제다
##취한
관광지
##식사
초당
다니엘
확인해야
권한대행
낯짝
##행에
야동
예기
인간적인
공방
이야기에
응원하는
사거리
후보자를
운영되는
토목
##무시
무관심
얽힌
##업으로
필수적인
청각
와도
춘추
그래놓고
얘기해
회원이
야만
대의원
##지니까
평가에서
종목을
집결
##전담
부정하고
반이
울나라
##용과
참가했다
용기가
냉전
회화
패러다임
들어온다
명의의
않지
흡사
한국지엠
느끼며
안나온다
국가들이
동작을
루이스
민중의
방향에
국경을
공공의
##모리
그런말
##등으로
나오니
##end
들어가기
배경이
슬프다
치가
40만
그러니까요
영국에서
##마루
##해는
길에서
효성
##나타
의견에
도깨
그런게
삼성바이오
공교
여자친
산으로
원도
홧팅
도산
북이
선명
##비만
이소
목요일
##하리라
막았다
방송된다
##요일에
박기
##랄까봐
극단적
시행할
늦어도
논지는
##네트
아인
사람들만
나쁘다
편협
줘서
본사를
유격수
환경의
메카
면죄
##eal
무고한
2차례
보이기도
공용
발길을
탐지
툭하면
조사하는
그치고
##유도
선동하고
##이신
물질이
허수아
10조
3위를
경직
사이트에
논리에
클러스터
뜻에
찾게
떡검
##사건이
이코
그쳐
삼을
성지
되려면
승승
##내의
이회
위치하고
글에
영천
재심
아들에게
여보
한나라당이
스태프
진행되며
울부
##저러
25개
움직임에
승려
##정산
성과는
효과적이다
##거래를
나왔던
OK
쓰러진
##지말자
있기도
추대
안받
위험하다
화보
##활동이
##요원
스릴
##창의
오전에
열애
제소
천하
8000
DB
냉정
슈틸리케
안무
집의
가마
##더가
의미도
주의가
빈틈
심플
교육감은
물의를
전매
##세대가
##하지요
폭행을
형식의
덕분이다
누군가를
##있지만
업무보고
스타일의
긴장이
경쟁률을
거잖아요
양국이
##입찰
평가한다
넥슨
인수를
대화와
청구할
연관이
매콤
맞으면
있겠나
왔지만
이들에
티켓을
하되
차지할
모자이크
6대
1부
정차
그랑
거론되고
고고도
##들이라
안재
닭그네
강세
김보
아세요
거래일
창문을
취지에
연구하고
관세를
홍위병
선의의
섭섭
##해보세요
오르며
2의
대금
떨어져서
##눈치
소리야
이미지로
이견이
찰스
##것이지
포스
품은
자유는
상대는
결국엔
##가족이
날에
해당한다고
##5000만
복수의
제갈
여러분들
교직원
뛰쳐
##입으로
땅콩
추종하는
##교환
계류
운명이
##품의
저와
필라
##한거고
##깊은
컨텐츠
쇠퇴
공동대표
일삼는
여력이
황대표
거잖아
기인
점프
128
##노선
팔로우
다르지만
##단체는
##ont
##ㅇㅇ
##암동
된거
힘차게
##억원대
따라가
끝낸
일상의
##드래
LG유플러스
##컵을
##불매
투입된
양재
말하는데
압수수색을
엎드려
화랑
어렵지만
어학
의혹은
입국을
##이닝을
빌라
ㄷㅅ
초강
판례
거짓말로
소셜네트워크
남경필
마련하기
가닥
세르
마련이
국민연
다녀오
망친
문화관광
기득권을
새겨진
혁신도시
##박고
안녕하십니까
우째
숱한
범죄의
이간질
당대
내밀었다
SW
죽어가는
승리는
스타일이
자격도
빼고는
발표에
글구
샴푸
자신들
파장이
인접한
선두를
숙제
중남미
추천한다
활동한
제한이
승격
##책임을
대사를
촉새
퍼스트
월남
학급
비는
##세우
##부패
##무대
##이라든가
시작하였다
라운
주석은
슬픔을
예능프로그램
진출했다
##율과
연행
보고는
흔들었다
아웅
힐러리
여실히
활동의
규정된
씹어
##수석이
##당께
서재
행안
##피싱
시위가
요금제
카풀
##통치
##동향
사이드
감격
마오
원칙으로
##ass
모르겠는데
여성에게
스쳐
##다보면
##일당
좌좀들
근로자가
딛고
30억
##금고
아모레퍼시픽
조업
사람인
면담을
조건에
소외된
없나요
중등
지급을
##자꾸
##과목
결사
무기로
생필
떠는
힘과
##8000
지자체의
수사하는
하잖아
##열차
세일즈
받아들였다
맞출
##병과
문장을
대부분이다
신종플루
##ey
이익에
러시아와
불순
##근한
부는
외교부는
이동할
15억
코레일
체온
구간을
퀴즈
개교
똥만
비트코인
일본이랑
분석하는
2만원
영장을
수지
인플레이션
내심
처우
KGC
쓰라고
고스톱
##마르
직시
불안정
충격적인
네티즌들은
시계를
요한
시각으로
유대인
제출할
들어라
상관없는
곰팡
치자
##마블
##세우고
등지에서
선고받았다
본회의에서
확신을
##잡기
각별
재판관
##백화점은
##해본
##이라든지
도태
추기
##포는
들게
갖춰야
배민
판매량
결혼은
##모니
##당국이
##업체와
올라오는
제주도는
1을
사춘
자극적인
유태
확보가
다른건
125
중국과의
망가뜨
두터
가끔씩
##꺼냐
더할
설쳐
드러운
이해는
달랐
규정하는
로맨스
문재앙을
콩밥
상황인데
삼일
추월
간소
특강
이선
결혼식을
하물며
##쿠버
설치했다
해저
전쟁에서
궤변
하루라도
##란에
##어버린
##러를
Com
저격
##기밀
사회관계
카자
더불어공산당
무소불
##써서
그렇게도
정신은
소비자들은
##모와
30만원
아니잖아요
언론들이
기자간담회를
일자리는
##불안
방대한
결실을
종양
기억해
달해
멋지다
##권리
미성년자
사진으로
권력과
무력화
##근의
광주에
##종인
가열
좋았을
경희대
활기를
짜리
심리학
굴뚝
드리는
텐트
포크
성공의
욕구
확대와
하나둘
##분리
우즈베키스탄
소통이
다닌다
죽음은
심정을
교내
터졌다
마음가짐
불우
##히며
연속으로
##이제
##토토
강타
꼽혔다
##색은
창조적
돌발
##치던
##손실
취지다
총선은
업소
##죽일
그러고는
드라이버
##과장
북의
생각해라
2010년부터
약점
생산할
경로를
옷이
만나기
혼란이
아지
생김
##에다가
말고도
##거랑
상큼
##직업
특별수사
참지
어우러져
##봤냐
찬성하는
유유
알리바
처지에
##더블
##드름
용산구
박해
가전제품
담백
##비나
광주시민
전업
##더군
논의하는
표현하고
집안이
##두지
##수없는
2명의
결핵
것들아
##와야
##였구나
ㄷㄷㄷ
관상
만들어지는
분도
궁금해서
기사화
획일
퇴장
장으로
한경
소유의
규칙을
사뭇
열병
##위원으로
올림
##접촉
학교로
투표로
##주에게
고흥
무너질
취하지
부득
신동빈
연맹
참여하지
기아자동차
하면은
순간이
거시기
습관이
##질서를
질문은
원래는
해독
마을에서
포털사이트
간병
내줬다
좋겠다는
학위
벌벌
##안다
문제냐
추진에
중으로
볼모로
있는지도
유상증
오리지널
밝게
무개념
칠십
공신
언니가
대선에
2008년부터
독감
고려하여
웨스트
터지고
한쪽으로
##국가에서
자르고
##회의가
르네상
##소스
국정원이
##즈음
메이커
하동
##손가락
##모금
하는거냐
##테크노
자폭
##사격
법리오
삼성중공업
때론
주먹을
##시스트
출고
##쳤을
상황에서는
하시길
##할줄
참가자들은
귀환
1948년
해적
시가총액
맺어
신분을
엔화
필요한데
시간대
##시기를
##DC
우선순
아이디어가
소득주도성장
##촬영을
환경부는
##살렘
사람이냐
2009년부터
##협회에
특기
환송
부족하다는
##매한
접수된
##현상
첨예
##TI
깊어
통보를
원자로
방안은
3점슛
사우스
발표한다
개혁에
9천
지속되고
##6개월
모르네
##항에서
##양아치
반은
개선과
##왔어요
결핍
의식한
헨리
힘들다는
잊은
구축하는
대관
원활하게
왜들
강등
구절
##페이지
비즈니
정성을
하락세를
발판을
팔려
노력도
3㎡
fr
기세
성관계
장로
체제의
일본에서는
유발하는
매듭
요청하는
군사를
안보는
후보자에
응답이
아랍에미
크라
스트레스가
##64
만도
##통으로
##오와
동해안
흘렀다
손가락으로
살인을
뚫어
##종북
깊고
##치매
이행을
어수
##자동
##그대로
하트
자식들은
일었다
정권교체
김소
함정
##안내
체결했다고
##국립
##불리
감정의
10년이
새끼들아
미국과의
일용
자료는
한참을
광주는
##과정에
지지자들은
지형
중국인들이
##이었지
5m
전셋
##이유가
해소하기
##술이
배워라
역행
가지만
인원은
##수사를
커진다
그랬는데
제한된
동학
낳는
교회에서
이벤트도
있을때
LPGA
##한다는게
청구를
살만
##원지
##스와의
개선하는
파운드
2중대
이씨가
조작을
##민에게
나부
찾아가서
고분
##집의
공개하는
논의하고
건강하고
##실패
의미와
비판한
살인자
생존을
##루살렘
방해하는
##원이었다
완수
09
통보했다
##국회의
초창
공매
거실
##부르
시스템의
농산
낫다고
하는데요
지방선거에서
합친
강조하며
파트너십
경제협력개발
시달리고
돼지로
좋네
사람들한테
김효
손흥민은
안건
##할것이다
정신건강
상승에
제작해
독립운동가
##몰라
겪게
그돈으로
선정돼
행정자치
자살한
닥쳐
임박
삼진
##이탈
준결승
필요했다
어디를
해야만
선체
금리는
##희와
개고생
##드리겠습니다
##커뮤니
조동
토지의
점수가
오라고
##잖냐
한명도
확연히
##르드
##공항공
자서
수석이
직후인
들어서면
무관하게
꽁꽁
##식물
내지는
##포지엄
원상
아래서
산업은행
말한마디
북송
남녀노
정신차릴
자동화
그라운드
저자가
하겠네
##해제
존재는
1만5000
연임
##이들아
##토막
넷플
멋지
토너
달성하기
유정
쾌적
선후
여사는
향기
##중요
##숙은
하늘과
##하셨다
##내요
너와
##관한
##ice
맞죠
##맨이
앞다
중추
##교육은
가리키
무분별한
##레스테롤
국빈
일이고
##들이냐
우리들은
농도가
##시설로
현저
##미리
7번
무법
##대나
아테네
것까지
눈치보
##플렉스
쓸데없이
##라든가
사각지
파멸
##HA
노래는
근무한
정치권에
짱께
##종자
가계대출
취지에서
상황도
출연했다
민주주의는
가파른
흐뭇
참담
안민석
급속도로
부메
##뿌리
##3조
먹어라
##있어야
##3개
어선
전방위
계획대로
##가능한
해가지고
전통적으로
죄송하다
숫자는
##RA
말에는
##요청
일본과의
추세를
훠훠훠
##차이나
200만원
##보네요
17년
아프고
햄버거
생을
징그
화력발전
인정받았다
빠르
진상규명
공학
쳐도
지도부는
##형제
양도세
##그머니
두피
이루기
##방송을
깜방
문제였다
외면하고
주민과
기회다
가는게
엘리자
닿는
무상급
철학적
어려웠
관광객을
기사라고
로고
견지
##지역이
욕만
노동자가
회사와
##츠의
##3만
티베
##포에
출력
##해방
아재
탈피
대기업에
이해한다
보지도
언더
##말씀
##하오
결정될
잔잔
내에서도
연예계
폐지를
##적이라
##직도
인사청문회
##났는데
거기가
허덕
맞췄다
느슨
##복은
##질만
유일의
배경에
사재기
5명의
박사가
웅진
세액
돼지고기
수로
외의
살아가고
배낭
행정부의
지역별로
##커니즘
##하는거다
주도로
불화수소
불쑥
거짓과
벌금을
정권바뀌면
순진
싸늘
조두
찐따
총독
##설립
누드
테마파크
가성비
모르겠어요
확실하다
맡기는
구분이
구구
##기사는
물러난
모던
##원으로부터
단호하게
들었을
자영업자들
맘이
온라인으로
발언으로
##값도
보고했다
성실하게
이만큼
##반도체
대역
##이노베이션
믿었다
사람보다
이루어져야
개발도상
뒤섞
##공간으로
통학
##싶으면
먹으며
체결하고
##놀이를
따라야
바르고
흑백
평온
경영진
##주시면
왕세
##74
정리한
비꼬
열기가
비겁한
시내버스
##라야
엄격히
##기업과
21세
끝판왕
있겠
자중
증거도
CP
준우승
절실한
부인의
수식
##생각을
추천한
##숭아
내적
##이라고도
##탕을
NS
##습관
##라는걸
##참사
연이
시행된
완치
개최하는
면접을
기관지
##같은거
소셜미디어
살펴보자
비교를
##ark
라이온
문화는
비율로
민식이법
##영역
지낼
300만원
##♥♥
르노삼성
데려가
문희상
임창
##되었지만
조국장관
180석
dis
##에야
하지요
장사꾼
할아버지는
섬세
일제의
##속은
그려진
소리냐
상품이다
##줬는데
##쪽은
다케
##마사
방송의
인물의
나왔을
의제
끄집어
##재단이
6학년
상용화
상납
정치인은
기록했고
성적으로
튀는
저들의
피츠
트위터를
##의혹
못받
재구성
대학과
발굴해
20만원
문준용
암컷
넘어간
선수들과
멋지게
안가고
간만에
##판단
##그는
탐험
나쁜놈
낳았다
테라
알겠지
시민들을
뮌헨
##측근
내구
없겠지만
##가보네
조금이나마
모집한다
정준영
몰렸다
A4
이근
문서를
우버
모르쇠
기탁
북한한테
185
##찌개
자멸
##금액은
그때마다
구멍을
문쩝쩝
그르
그것으로
##일지도
왔다갔다
튀김
놓으면
법원행정
##건전
도장
적나라
서민들이
##👏👏
##올리고
수사관
##해수욕
취약계층
아니겠습니까
관영
다방
말리
올려야
강대국
아이도
세대를
공교롭게
의존하는
불출마
##라든지
기준금리를
도시철도
팬들을
늦춰
거란
바란
많게는
꽂아
태어날
3세
어린애
문학적
컨트롤타워
인간으로
뚫린
산업용
주진
칼슘
개천
자체도
000여
##스럽네
연관된
##점수
몰아가
선입
##선거관리
구호를
절반은
부인하고
국민의당은
싱싱
모토
밥이
뇌졸
뒤따라
##조례
공부는
전한
##8천
##더미
극중
차별을
##뮤지
상응하는
경고를
필요하면
카페에서
##배나
고통과
가게를
여인이
##합이
지나면서
맞선
BB
볶음
시험에
##홈런을
깜빡
한국사람
이후부터
마리의
근무를
무너졌다
제19
발사체
지수가
저해
##레저
비굴
책임감을
자유주의
어쩌나
고갈
##돌아가
온국민이
수컷
총출동
적격
생각나는
대사가
##기아
분들의
##준을
8월부터
범죄자가
##기면서
공개해라
잇따르고
끼치는
D램
네이버에
첫해
##썼다
작용하고
원흉
##것같은데
##1로
##단말
말안
코카
##탈을
나서면서
한반도를
승승장구
경감
하셨다
부담은
우릴
여자친구
이상해
이범
문제들을
가져오
순매수
##전력
개봉한
대구지역
3승
##3억
평가한
선장
사퇴하라
반대가
자한당의
##검진
##ich
##감찰
##연에
사이에서는
##교와
좃선일보
갈아치
##체류
##조제1
찬양하는
판타지
##하마
실종자
##하십시오
괜찮다고
이사회를
##분도
스텔
##86
버거
##만봐도
사진에
8시간
백두산
덧붙여
급증하고
##군인
8명
향상에
외형
임의로
KEB하나
폐지하고
바다가
공휴
그외
시작했습니다
걸을
자본시장
##이치
만만한
통틀어
신혼부부
##자살
국정감사에서
대국
일대를
책임감
##경제의
최형
비해서
끝도
울부짖
##인격
##부장관은
멤버들은
날린
##품과
피아니
있더라
##공단이
자본의
줄줄
##퍼를
향수
##BA
행보
금태
쓰레기들아
계정
아니하고
6월까지
문구가
어미
조국아
도와주고
비상식
건조한
적용하고
얽혀
다른사람
논쟁을
엠비
것뿐
##신과
##체포
장난하냐
일관된
진보는
##응답
해당된다
예측할
구명
내무
##림과
경협
짧아
##게이
비누
누진
##학교는
않았으며
누워서
사유를
혜택은
세속
대화는
##사라
##기름
버금
있겠느냐
공간은
어이구
뜨는
전문가로
추진된다
일회용
추천을
기부를
병력
수입은
민변
##하군
##갔습니다
##협상을
견본
##여개
##대중
##말까지
자사의
대깨문들이
중소기업에
입만열면
여론조사를
느그들
휘청
이양
우기는
고뇌
쓰래기
아내에게
전해진다
내편
재기
말하자
적폐로
의도는
세단
하원의
될것이다
열중
나타낸
DS
정반
##거같다
##나가야
##읍시다
하드웨어
근로기준
민좃당
선택에
덩어
말하기도
##요소
광고는
##이전
위협에
펀드에
대법원장
이념을
2월부터
날개를
해명을
센트럴
##활을
##bo
제게
적법한
##았음
마흔
양상
변경을
힘도
주어지는
##보고서를
##난이
부엉이
돌보
누리과정
뭐해
##같은소리
70대
경질
##류와
원한다면
참가할
음악에
과시했다
지원금을
하고도
##이고요
판매할
정신병자들
여자와
여론몰이
거리의
벽돌
시작이
CF
귀순
##7000
광고가
##경기가
도마
도로가
정규시즌
던질
진보의
디자인의
안통
지질
햇살
##현상이
위치가
플러
피드
##할까봐
대기오염
##펀드는
물음에
한국관광
로그
##ory
사러
시의회
부분의
퇴직금
해남
들썩
##탈출
은혜를
향토
보기는
실태를
지방에서
의사결정
위해서였다
싸운
지방은
못해도
초음
##ence
폭넓게
##표에
##표의
올라가고
근본적
형법
강도가
만든다는
수억
급성장
다져
##란스
##린을
후보들이
애들을
나이도
가격의
괴로워
사용자의
받는데
해석할
일시적인
논쟁이
역부족
일본인이
끝난다
찾아보
##신당
##는디
돕는다
##다툼
기후변
따질
##키의
바꾸면
사채
##갔다고
맥주를
하므로
##내리
##2조
##부리
7000
키웠
동안은
잉여
MR
가며
전현
조인
##손에
아니어서
롯데월드
벗어나는
차도
도끼
오토바
나왔다고
##족은
말이오
부위에
##바랍니다
용접
##공예
2호선
꼭두각
받았습니다
배치를
가치에
##피부
##대화
외국으로
내세웠다
전례
향하고
와라
18년
최씨가
강화해야
코르
할수있는
얼굴과
전문가들
거룩
단풍
생각나
조사해야
들어오지
키우기
니네들
국격
10위
코레
강요하는
민심은
보따
##님들이
##물었다
##리아는
버려라
빌미로
우여
##기온은
보험금을
##프로그램을
지점을
우리만
소요되는
뒤지
멈춘
##85
침대에
개선하고
노래방
테슬
트레이닝
출세
임명된
시도하고
가능했다
차트
제시한다
많았지만
##EA
##일치
3위에
##비상
비무장
주옥
저번에
인간말
감각이
나타낸다
막막
리처드
악마의
택했다
성균관대
걱정은
##젠테이션
결선
죽었
보이스피싱
##사태가
퇴행
태양의
치렀다
갑작스러운
##거주
6월에
하반기부터
부산지역
##월에
색깔이
##칼로
##자들로부터
##련한
정부야
것만은
붙어서
사진도
그럴까
이백
개선될
뒤처
문통은
비정상적인
수업이
달서
들끓
##7천
한밤
섬세한
아날
##나오면
게을
지독한
de
공간의
전략에
몸소
전화번호
동력을
##티에
누르면
협의가
##수인
임대차
사유로
공갈
많았는데
윤종
저수
##나쁜
선수와
이전부터
맞추기
월급은
##모습을
했잖아
혼밥
반성해라
압구정
##대회는
들어있는
지나도
##어치
건설에
시상식
##불로
순간부터
##아니야
##통신이
위례
부모들은
##퍼트
언뜻
통신사
뛰어나다
버튼을
자긍
아니라서
년을
킹크랩
##딩을
확신이
##원장은
거거든요
가져왔다
내역
다분
출석해
차례의
초빙
택지
경제폭망
가지가지한다
독립된
##아닌가요
정동영
나야
##캐슬
외교안보
국뽕
시끄럽게
은하
말하면서
##들임
뼈를
정보화
놀아나는
댓글도
깨뜨
취했다
주재로
제작진은
간첩이
##장이라는
##개돼지
알레르기
##오버
1973년
##이라곤
가디언
알린
판결은
사정은
15일까지
1981년
이내로
##잠을
KBS2
있겠죠
들의
초선
성과급
1년을
요소로
채울
도덕성
알선
관여한
구인
##런지
답한
팔레스타인
역풍
##가들은
응하지
얘기한
##단체인
검경
선구
지나서
집단으로
태도에
북한이랑
교묘하게
100대
당신과
있지는
##단지가
산학협력
##69
흐른
정글
##OR
##테이
##교육에
배설
##깨문
대통령께서
경복궁
##하든지
부합하는
An
그러니깐
참패
게스트
짝퉁
둘의
아베한테
대상인
갖추지
고정관념
럭셔리
적금
워싱턴포
단단한
관례
2002
경성
##저는
전환이
계십니다
##길에서
되던
주변에는
충청권
남한테
있겠습니까
인간이다
그러게요
종사하는
되겠지
115
일정에
우체국
이어가
먹이를
##주시고
##트레이
개선해
검토한
검을
서점
포함해서
인간에
삼성증권
##리아의
##병원을
머물렀
동등한
안부
잘해야
아프가
104
알고나
농지
##시나요
소리지
1978년
##시키들
빨대
대정부
##인천
기관총
김석
다이아몬드
미필
부위를
안하나
지정해
문죄인은
고위공직자
##악의
3만원
지점에
보겠습니다
우여곡
##이건
##하고있다
캠퍼
카드로
1기
분홍
공공부문
예결
개연
패턴을
묵은
내리면
언급을
알았지
항생
##스텔
2심
대답이
롯데가
##뭐냐
##을까봐
양심을
윤리적
휴대전화를
공과
볼수
##통장
##협의회는
출입국
가이드라인
IOC
연명
##합병
혼다
근거는
##미친
##무능
왕창
##협정을
형의
비판은
다른게
##겄다
대용
기여를
의사와
검찰도
엄정
뛰어들었다
점유율을
부인과
칠곡
수다
##타당
접견
기본적
드럼
신입사원
가늘
완장
물러났다
##대변인
성금
애착
일류
국내에서도
이혜
소비자를
장기적
분량의
낮에
##째인
##야지요
연구와
무엇인가를
리더가
주문한
3국
내라
고부가가치
자치구
##테이블
꿰뚫
접고
노예로
추진하기로
이동이
무한도전
부지런히
##많아
이날은
있어서의
끝없는
##후를
방법과
청도
얘들아
야구를
재계약
중요하고
시작해야
배양
왜요
##세력을
북한만
##설턴
20년간
미지수다
주식시장
김부겸
드물다
국왕
빵을
탈원
##유착
하늘로
1965년
우려하고
존재감을
무성
##초의
허용했다
##편향
의사소통
나발이고
2박
보라고
##사구
안하지
도입하는
##생에
받아왔다
##홀딩스
하는건지
예정대로
회귀
##경정
수익성이
근무하고
사노
당장은
##저자
경기도가
울주
잡는다
땀이
음향
예루살렘
뛰어든
거슬
불균
오랑
고가의
지음
받아들인
평년
##는걸
쌓고
공동체의
세관
정서를
심정으로
지식의
마크롱
##파인
소속된
모르겠고
장관으로
엮어
포진
경기도의
##속까지
가운데서
기정
독일에서
인식하는
보단
##프스
둘이서
##크라테
국내의
김이
보였고
적성
기자들의
도와준
가입을
여인의
##원이라는
느껴질
지들도
##싸움을
종교는
느닷
##모닝
##운은
전세계에서
끊었다
문명의
욕하면
관공
##나야
##원짜리
매직
누구라도
놈아
일이지
전시장
띄었다
연어
포즈를
라이언
양정
성장해
다급
보령
접경
어찌할
드러나지
전문성
걱정할
##맣게
불안감이
총체적
두려움을
무의미
포격
반쯤
어떤가
자동차의
##싶냐
밀접
##67
공부에
작용했다
방과후
경제민주화
핵심이다
떠오른다
치욕
##움으로
카자흐
공급하고
##인구가
##키트
포함하고
설교
따위는
내국
뇌물수수
언급하지
옷차
se
기술력
생겨난
관행을
제1야당
##요양
바다의
채권을
느낌은
진다
그랬더니
포지션
##주기를
프랑스는
감방에
박민
양형
장점은
갈고
비벼
사계
없었어요
고생을
감정적으로
##hani
공사에
예가
우산
정할
실적은
공부도
막가
전동
##바의
##쪽이
##즈에
##이미지
공무원을
결심을
인질
빨갱이는
커리
개소리야
용역을
호구로
법률에
옮기고
메세
국민일보
마시면
임금은
##㎡에
고객과
인증샷
이석기
적자가
주제가
추잡한
문제라는
국민들만
##💙💙💙💙
집밥
클레
결혼이
죽이기
모닝
잣대로
지럴
가두
채우는
이중성
##했어야지
##제거
##루션을
공통된
분들을
뜨겁다
구성이
선천
내린다
감독도
이거지
양심에
성분을
낭독
넘기고
너랑
발표하면서
페미니스트
대에
##교수가
따까리
상식을
##보호법
신지
분열을
실업급여
부산을
##사회적
여사가
기조를
망상
보여주지
갖기
##인가를
생산이
##이하
##4일
##시키는데
##품에
109
진입을
참여정부
사라져라
##거리지
대화에
##예약
열기로
대승
##했을때
혜택도
일꾼
서영
최근엔
노무현이
이날도
##이다가
##힘들
어이없네
230
##호식
##안한다
운영이
원에서
말끔
바치
##려던
##위조
50억
양동
국적을
미터
도적
쫄깃
##오래
##사령부
쓸어버
없앤
일보
듀얼
씨에
아따
순조롭게
경우와
평소보다
불면
##클래스
후인
근처에서
퇴직연금
국방부가
거짓말이
현미
요청이
##린데
만들었고
말살
댓글다는
##인사를
삶은소
숙여
뭔가요
##않나
중앙대
주식회사
글쎄요
문제인이
서거
##죽은
머리로
박희
페어
엔진을
정윤
##록에
산업통상자원부
낮춘
복지를
##했니
한목
##장이다
##대접
만드네
##공모
##일수
않다면
##사망
다이빙
열매
거기에서
쳐서
냉철
평가해
기자들에게
구속하고
험한
##공원을
찌그러져
조장하는
기상청
##석한
##2억
받쳐
그중에서도
보은
여우
유치한
올리기
##렁이
신격
시작이다
가까스로
정산
나라경제
대해서만
속도는
##에서나
##란게
꾸민
촘촘
##율에
공포에
대우건설
국립공원
공은
호기심을
보온
경제부총리
##레옹
주력하고
오케스트라
##종양
외교는
물밑
뿜어
본관
민주평화
보상금
마이크로소프트
현주
만연
##주셔서
##쩌고
미역
교향
##집단이
각본
일해서
##세무
김현미
##직의
셀트리
문제제
집중하는
얘기하면
뮤지션
실었다
##지지만
모로
쪽의
복음
역임했다
회의는
형평성
오염된
접근성이
선순환
도루
결별
##러의
##혔던
것인지를
1∼
지금과
##때문이다
쏟아냈다
##지하철
조국에
3월에
2위로
평가에
반경
수화
##지라도
경험은
주총
죄질이
신문사
증언을
##리언
##전사
안하는데
불릴
토익
##거짓
2년이
터지면
##예고
고마해라
한정된
##버릇
부도덕
##mer
KDB
팔면
1975년
당해도
##파이어
채용을
성에
##창은
활동과
회장에
me
출원
##범위
##기레기
채증
빨간색
중단된
##들입니다
누구에게나
기회도
이런말
금융상품
작게
피켓
한신
##임명
##가냐
도사
전세계적으로
주최하는
긴축
중요한게
따냈다
몸에서
##법무
연설에서
한국수
스님이
세비
##특구
국회로
##프로가
문구를
##포함
##테마
##조건을
본래의
할머니를
with
볼거리
키웠다
대한항공은
##범죄가
##같지
상이
파렴치
두고보자
발돋
##루스
공예
지난해와
인천의
검찰개혁은
옥상
경제발전
꿈틀
##가을
백날
여행은
헬스케어
##득점을
스토리를
좌파정권
거부할
마일
##그제
서문
##강사
##렬히
매일매일
##어스
중국입국
평가된다
##입에
국익에
에디
민족이
시스템으로
##1명
오던
##여객
기울여야
자극하는
##없지만
##많네
##날의
납득할
아니한다
114
직원에게
이의를
호흡기
날조
##수술을
가부장
얽매
고향을
대왕
##리들
상승으로
받거나
우르르
특검은
승리한
영혼이
검진
##GO
조직은
아저씨가
3000만
억류
##염이
2007년부터
패싱
##생들
문성
##마시
들어요
10시부터
활동으로
강서구
##age
인상은
##구름
기대되는
들리
이상황
두바이
이데올로기
그간의
2020
##진다고
의료기기
괜찮고
##주머니
가출
##렸다가
들어서고
참아
중앙은행
이용자가
발길이
만두
적재
정당성을
공부한
발열
관해서는
지났다
##줄까
국물
##봉투
민족을
강용석
생산에
사외이사
제기할
정신으로
아낌
##현동
##수나
##대니
##번을
촛불로
3㎡당
세력은
##구니가
예산으로
프로그래
##피크
가속화
특색
일인지
팔로
##율로
5층
바꿔서
지리적
전환하는
가겠다
자책
##자들이다
##배구
합리화
눈부신
문과
국내산
##래는
않기를
16년
##타점을
경멸
끼칠
미시
##C는
바이올린
열지
##연휴
지폐
이미지는
세계화
수요일
못했습니다
마는
##ack
사내가
죽었는데
은행에서
천박한
불합리한
안겼다
법무법인
막히
출혈
어찌나
뇌를
높아지면서
해발
##술은
조원진
젊은이들
비워
마시며
가이
감춰
남한의
달여
구애
될수
지저분
시댁
##는거죠
3일간
매끄
순례
선거인
살충
11월부터
양국은
##마땅
권오
##레의
##부여
유병언
제주시
7조
추악
##톤의
압도적
심신
꿇고
##에나
상점
##갔지만
사항에
그죠
##군도
184
채팅
판단된다
음악과
##학적인
##란트
남로당
대답은
이씨의
도로교통
머냐
하길
야당과
때리
앞섰다
이준석
서울대학교
개량
한순간
부산은
극치
펜스
빼돌린
시나리오를
전년도
하시면
뉘우
##연방
안그러
원장의
현상이다
확신한다
열기
한심하고
서민들의
이론적
탄산
반영하고
##울을
노벨상
##충전
표창원
법무부는
난감
퀄리티
신천지에
##새끼들은
연예인들
총학생
화요일
##당하지
##말든
실재
##편성
유쾌
나라다운
않았으나
한것
독도를
조선왕
시장에서는
##할땐
불길
거기에는
서구의
시도가
##소리로
##의약품안전
짬뽕
머지않아
좋아해
시각에서
감싸는
시위에
##주는거
목숨이
다산
##아메리카
장동
정류
캡쳐
시키지
결심했다
월북
되는거지
그분이
##시켰고
무실점으로
모르겠네요
달성을
피지
야근
있은
기간제
말했고
강남에
성차별
##겠노
금리인
친구에게
##츠가
인생에서
되므로
시도했다
##캠퍼
서명을
내세우고
실상은
정으니
전시를
##대학의
의병
활용하면
금융시장
묵인
출판사
종사자
고등어
협동
가다듬
잃는
##셨네요
##고대
너네는
풍자
씌우
복권
##어울
##폐쇄
옆집
##메르
##졌으니
통상임금
상도
열망
##라고도
개국
되겠냐
프로젝트는
대처할
07
매경
야당을
이거를
사회관계망
개성을
황태
개로
주려고
100개
민법
북한산
주는데
보수적인
시달리는
조사도
반려동물
##소리에
비공개로
잠재력을
격렬한
머무는
정용
구실을
##ere
##도까지
맥도날
마셨다
신성한
##보훈
##유니
영유아
그었다
로저
##부서
선고한
기원합니다
구하고
인조
파출
##억달러를
필기
수사와
교통안전
아슬
차질을
법안은
해도해도
멘탈
##준화
출연하는
##하겠나
바른정
생각해보
유쾌한
한동
갑작스런
판매에
개돼지가
보드
업체들의
보내서
있구만
##규의
그룹이
섬나라
##나베
궁궐
테이블에
두근
세계랭킹
본회의를
잡아라
##날은
인체에
##정부에
당권
축제의
그런건
파기하고
방황
##내린
사용될
한계에
호가
예상되고
##했네요
##초는
시멘트
##하잖아요
기내
이혼을
##새끼는
##만하는
못들어
구본
딜레
신발을
##이트는
업체와
돌아온다
##수정
##사태를
보탬이
협력이
##렸어
전무는
참수
1200
소리나
위스키
결과도
차례나
전관
##테스트
국제통화
용인시
3자
##대까지
##의식을
조성한
빠져서
오래다
##단독
##케인
이유에서
##노가
##러지
나이지
어지럽
황제의
비를
글의
숙련
연방준비
투신
##for
색이
세탁기
뽑아준
할수록
##역량
나팔수
##유학
유라
따른다
2명은
머뭇
미야
검증된
두리
가해자가
가네
ㄱ씨는
막아라
##란도
손님들이
십일
회동을
5월에
됐지
##경찰서에
유시민은
알아듣
##정책으로
신고리
20명
실수가
노비
머가리
하우
일본차
슈퍼마켓
큰일이다
채찍
원고는
서리
초기부터
##운의
플랜트
과제가
##장기
박근혜를
통제를
길이가
행정부가
##ro
극동
산다고
욕설을
페북
자위대
절을
6시간
예술적
공정을
기르는
무대가
다목적
농경
이냐
마블
##렸어요
움직였다
##패거리
필자가
##육성
##킹을
겁이
어디든
분과
성당
##착륙
##AP
진술한
첫째는
푸하하
배구
시즌2
판명
다가오
대륙간
내부적으로
말인지
콜라보
##기술이
차용
김모씨는
별반
시립
눈길
이미지와
급여를
이야기의
중앙선
7명이
sel
골빈
##행위는
범죄자를
짜장면
##혁의
분야별
진출할
똥줄
고생하는
귀띔
붙잡아
푸르
느낌의
문은
한이
##세월
##여라
##89
투자자들은
실장
다한
의료비
뇌는
화려하게
둥근
386
있으면서도
##드는데
노부
캐시
고층
##단속
있었을까
2014년부터
경선을
이곳의
도로에
정서적
배드
부산국제
보여주었다
귀족노조
장사가
##밤에
내주고
골퍼
여러번
습격
유죄로
##버둥
NC는
재밌는
106
영등포구
근저
종합적인
절실하다
조성에
새만금
##만세
제국주의
사물을
코치는
##하시네요
##불량
내비게이션
##저녁
녹차
안팔
##어나는
선진화
실업률
됐어
저지르는
부위원장
생각하면서
정부서울
##사항이
107
이기주의
시에는
동물이
감내
##세종
운전면허
반증
뉴타운
diet
요미
밤에는
모른척
순위가
키보드
최저임금을
##으시고
저녁을
시작하여
##정치의
##m에
쓰다듬
교활이
##영수
자동차가
협상의
인접해
##1위
악을
사건이다
##론도
회담이
방산
밝혀지지
##화장품
쳐맞
##난에
경관
대통령이라고
산지
##업체들은
통해서도
##행의
##변동
이러니까
서글
예전의
문재인정권
##해주신
##났고
조성할
비축
역할과
소재의
발행한
14년
있어서다
배럴당
초토화
AC
놓친
타지
##선교
혹독한
##했기에
단번에
있었네
넘어설
개화
명박
##대밭
##이해
##1호
생활하는
4명을
안전보장이
##줄께
외교장관
스코틀랜드
끝이다
승무
추리
축제가
댓글달
살다살다
설계를
행하는
전액을
중상
일차
대자
나폴레옹
박유
홍명
흘린
나와라
없겠지
선거개입
중얼거렸다
갑작스럽게
설리
저자의
기각하고
익혀
열거
외무성
저택
우리금융
고려하고
12만
높기
##우회
이상이면
올려라
##안하냐
연봉을
하얗게
수익률은
올림픽을
그랬어
번식
엔씨
##옥은
와이파이
남편에게
말좀
##층과
방안으로
알겠는데
##순은
3으로
한국당의
평가도
사슴
국가정보원
국면
이례적인
과제는
스스로도
나두
정신차리지
3번째
충청도
보고싶
훈련이
##항으로
자산관리
오락가락
스쿨존
생활은
였던
대표에
사랑으로
밀린
위주
정을
비판적인
법대
대응해
아프가니스탄
외국인의
산업화
##연수원
주소를
않고는
그들도
황우
날씨에
##마인
자리한
자유무역협정
##취득
줄서서
별이
받는다고
##케이크
경의
##차익
안정화
갯벌
익산
정규직으로
동향을
제도로
굶어죽
공유할
쪽발
##──
먹여살
매체는
가루
난리가
주니어
신변
토니
도보
이리도
##주택은
까닭에
##까는
좌빨들의
제스
영상으로
노인들이
행사도
##매니
민원을
사업시행
김시
연세
좋음
입학사정관
농작
##이구만
탄도
내던
강화된
성완
느린
속이는
경찰도
보탰
##높은
포로
##라에
박씨
##MS
허다
NLL
우려해
저한테
국가원
미래통합당
의식의
도의회
군을
빠지면
표류
으이구
낱낱이
워너
얘가
슬그머니
##다는걸
선택적
출발했다
주기적으로
##바라기
불상
와야
위력을
##이라면서
자랐
금고
##드리는
그때의
필두로
##느냐가
청년들
거취
동그
##공인
##포털
삼성생명
문제입니다
실형을
안해서
##언니
아날로그
콜레스테롤
바다에서
할말은
##아줌마
있는거다
1972년
모티브
빠짐없이
부녀
존맛
말아먹는
연차
##답지
대접을
스모
흐트러
##은은
만났을
##메가
만전을
미국한테
역겨
작지만
진솔
내연
못하지만
바비
범인이
쉬쉬
비추
타인
기초를
미친듯이
##상업
등판해
아파트에서
부리
배치해
도둑놈
노동계
##산단
포함하면
거기다가
식품의약품안전
상식적인
퍼센
초고속
구강
평을
사실인
메커니즘
댓가를
2루타를
##사건은
많구나
지어진
가라고
지금까지도
8월에
할것이다
조정이
광범위하게
안했다
##념을
청화
아들도
되는가
개선할
바이러스를
공명
삥뜯
파이낸셜
지울
넣어야
가냐
떠난다
##수준을
##딸이
15일부터
소녀상
벼락
##기일
친절한
##단체와
mbc
##확대
근래
선전선동
9월에
##전투
##들한테는
혼란에
막연한
수임
질책
몰아붙
목구멍
주인의
전쟁나면
##안되
##봉쇄
##열의
##미달
1974년
어두워
부당이
웃기지
분들께
시절이
행위의
미묘한
이슈로
정운
##시에는
살며
전만
한국보다
##인데다
경품
기사에서
최고위원회의에서
구체화
주게
##싫은
개박살
세컨
월급이
역세권
일궈
3명은
외환은행
##하느냐에
새로이
도교육청
번호를
허나
GE
펼쳐졌다
돼지가
##바르
##창호
12월부터
돌려보
못했기
##불어
##됐는지
들면서
수법
##저를
영국과
친미
뿌리가
서양의
##왔기
나오나
##율의
my
산부인과
비난하고
민원이
##리학
문대통령님
어딘가
버려진
##자들만
장치가
중전
계속하고
비명을
ELS
흠집
총괄하는
딸도
##2만
찬사를
시대로
##AD
이인간
제거하고
우아한
박통
의전원
국회의원들이
운동하는
회복이
스킬
포드
부진을
응원을
케네
##꼬라
짱깨들
##시킴으로써
투약
주고받는
시선으로
혈세로
몸통
하이라
그대는
나는데
뇌피셜
##차기
대표이사는
##브가
11번
운운하는
초과하는
1세대
극에
남중국해
발표는
변제
##양과
진정성을
넘어가면
가르침
달창들은
##로봇
국민만
참석하지
했겠지
이동해
대주주
##연예
##ove
##달러의
##뤘다
미숙
##먹는다
우려의
원더
800만
공습
##만드는
지정을
##만장
##의사
강박
색을
인정받은
가져와
꼬투리
##총괄
행사하는
##문재앙
위원회는
270
BC
주목해야
누비
여간
시사했다
희미
##현황
짓거리를
골짜
발가락
넓어
##당해서
오천
열정이
보장을
##산업과
인식의
잘하세요
##믹스
##용역
익히
견해가
높아져
미쳤네
넥센은
뒤의
장르의
##간은
다르냐
4년제
부족하고
각오로
늘었고
##공공
IBM
기막
관객들의
남쪽으로
휴지
##노래
은행은
상실한
개념의
자율적으로
사람마다
여러분께
개회
유지해야
##비밀
센스
설비를
마마
한국일보
##연과
##도하고
PS
수비를
##자야
OOO야
##조장
얼만
##3명
발견되지
존슨
##모음
사진찍
결혼하고
설립해
##나무가
약세를
교사들이
명실상
거에
##레이터
손질
영덕
검찰수사
세월호가
##대갈
않겠지만
파악하기
##주시길
가다가
##짐에
우왕
진정성이
##cc
색깔을
일했다
종말
핵실험을
이사가
뉴욕에서
올바르게
포함하여
승리에
악한
##주려고
로스앤젤레스
우짜
모녀
부정적으로
걸림돌이
교장은
등에도
안타깝지만
속내를
아니랄까봐
이때부터
차장은
##꽃이
##하키
##영어
날리는
쏟아부
구입하는
전후로
매장에
들으면서
백퍼
정숙
##조사에
울진
##입장
화석
실점
이제껏
백혈
투수가
##여명
다니냐
여타
장소는
SF
숨지고
절충
보건소
사립학교
주장할
구성한
발버둥
커튼
바쁘게
##헌법
내다보고
나라팔아
등장하고
압니다
##신에
입게
바미
159
처리하고
복잡하게
혼돈
판다
미팅
촛불이
##크스
많냐
소름돋
살폈
폭스
읽지
##1개
##단장
중요시
##센터로
##국민들이
##새퀴
##겼다는
##센터장은
전국이
일상이
건립을
헐뜯
##벤트
##가치가
내쫓
##호영
판촉
한국토지
유니클
노란색
교재
고용을
될지도
외노
부문을
알겠네
한약
당위
##부장관이
총액
##훈을
##셨을
대법원이
도자기
문건을
회담에서
일관성
섬에
짝사랑
##앨범
경제성장률
무장한
맞어
방류
사업자가
국내로
##man
힘겹게
누르
활동도
전자랜드
##원숭
한번만
미세한
개인은
농약
전투를
##봤으면
보성
좋은거
구의
예상이
전쟁으로
추가했다
디즈니
##검색
아파서
브랜드인
정상회담이
##2개
우측
관련자
기억하는
없잖아요
국민청
태극기를
일어나면
프랑크
그따
##메이드
20일까지
말해야
거긴
##교로
##자였다
묻지마
표정은
의심할
둘째는
기업이다
도로에서
개에
기여하고
분실
빚이
##케이스
금태섭
전망하고
여론에
혁명을
##세까지
방사성
최상위
페이스북을
진출해
개망신
동백
북돼지
어림
흔들리고
합류했다
브랜
박근
앵무새
했어도
##감정을
허경영
##둬야
신천지를
고마움을
##사회복지
##청장
언론들
TV조선
사과와
메르세
컬렉션
운수
##골목
경제위기
좋을까
강화와
생후
일감
지구상에서
방호
##졌나
쓰레기야
중징
사업가
시행을
일하던
##비율은
동래
피부로
노력의
못지않은
언제는
어르신들
##처리를
바꾸지
늘린
일해
교수도
품위
이러다가
##성분
##랑께
ㅇㅈㄹ
포화
방식과
자존심이
##샤오
권한대
넷마블
천정
모시는
영혼의
다가와
증가세를
##일수도
내한
레닌
창피한
무산됐다
##이들은
얼핏
혁명의
시간만
학점
##것과
가관이다
감소로
가구를
조사와
##세라
기자와
시행착
의약
불법이
알고보니
심은
번만
떠올렸다
발견해
##번지
할일이
##억원이다
리틀
정현
차에서
##사고를
환율은
따르고
다르기
원칙은
구십
##윤은
##자들로
윤총장님
관점을
전립
##환영
##풍의
맘껏
##파일
디자인으로
이놈은
아드
얹어
##가봐
유은혜
못하겠다
양호한
사과했다
청년들의
구축할
사은
일정은
똑같아
##15일
치마
거세게
읽었다
광복절
환경영향
어젯
##바란다
살어
##갑시다
구조의
해야죠
##치나
선발된
##서나
미생
만든다고
겪었던
##협회와
내뿜
수법으로
##합동
주머니에
##박질
가족들을
말종
해석하는
내로남불의
생전
##건대
신청서를
공기청정기
시전
참석한다
제기돼
코스를
가볍고
##업과
거머쥐
##서에는
청년실업
##스러웠
제네시스
시기와
주최하고
일체의
정리를
평가받고
##겼는데
뜻도
방패
사형을
##매입
비참한
울렸다
사회과학
기자들은
##표현
이란의
부탁했다
LPG
저것들이
움직임은
죄값
몸담
천구
내놨
정원을
##운운
답없다
결의를
팽팽한
너무하네
부문은
역삼
촉구한다
##해체
신청이
현수막
겸허
가능하면
돌출
들었어요
유촉
가래
예산의
발돋움
동무
반격
니들끼리
고통은
강소
앨범을
##산성
##론적인
알겠냐
용지
성완종
낙엽
재연
정상화를
감사한
178
괜찮아요
##덜이
떳떳하게
조선을
악기
##떨고
아플
연비
##지었다
##겠다는데
##죄에
주석이
세계대
##아시안
자한당을
말하지만
##양식
기관을
밝히면서
중견기업
차명진
괴뢰
공시가
어려운데
##투자는
짝짝
외주
##기는커녕
NH농협
물질적
##치산
가르침을
되었는지
장기화
성장률이
종의
보호할
출소
한순간에
생산해
받았으며
풍경이
해당하지
클래스
불리하면
발톱
##을려고
조광
쿵쾅
##죽이
심상치
로즈
영농
하고요
뭐냐면
10월에
##본부에
답변이
사상의
##좀비
OOO들이
노령
##살의
학교도
심리가
##냈다고
하수인
할래
계명
파병
이슬
소설이
검찰개혁이
전두환이
우라늄
뜻밖의
기다려라
인민군
예민한
핵무기를
당국에
1위인
촉구하고
##호르몬
2500
골프를
약해
자랑스럽게
개헌을
불쌍타
몸도
무수
600만
##탈삼진
네오
인권침해
##암은
징벌
추진해야
정교한
##십쇼
블록체인
통곡
주상복합
기장
자본이
서해안
구상을
다이어터
성공적
친구들을
까닭은
양당
잘돌아
흉기로
##광을
330
##해줘
담담
##있어라
김일성이
분석에
고를
살피고
힘쓰
꼬봉
장하성
양측은
즈그
##번방
남아있다
##누구
사용해야
물놀이
##말만
안전성을
창피하다
스커
물어보고
##자원을
여행사
부산시는
##락은
실효성
그밥
확대했다
식은
공통점이
조성된다
일하면서
주최로
방수
시베리아
시부
취재진
9명
##나무를
의심되는
꼽을
실속
##내렸다
별의
체력이
##던데요
3곳
SK이노베이션
시작하자
교과서에
시각도
버스가
이탈리아의
원어
SK하이닉
만큼의
##ss
코로나는
늑대
방침에
남성을
인선
농부
끼들
청계천
할인된
반반
국민한테
기초한
##인력을
한기총
펼치며
밝혀질
결정해야
직관
중요성이
1976년
##따로
대통령과의
왕조
135
신나는
열정과
서민을
절박
한여름
출마한
전입
퍼줄
방이
##2명
접근하는
##프랑
팔십
한바탕
갈색
9만
조개
취득세
방망
손은
##모독
자괴
##죄의
못쓰
불거지
이나라에
서경
##선가
자본주의의
살아남은
상상할
백색
주댕이
재량
##자이자
##나라냐
언론플레이
##위원을
##행위의
이용을
아시죠
들어가게
퇴사
##소식
애리조
에구
시다
매각을
##셨고
처벌할
ㅅㅋ
##카드로
근육이
판단한다
모형
너에게
랜드마크
1점을
홍준표가
자숙
수신료
싹쓸이
뜻의
##승의
소유권이전등
5가지
##분들도
대단해
건방
작성해
인권은
손해배
팽창
분양을
유익한
##년아
제시해
정태
친하게
쓰네
정보에
연봉이
문의가
육체적
주변국
집값은
증세를
비효율
아토피
쓰세요
첨부터
강점을
욕은
##건조
##받으면서
지방이
학자금
부드러
김상조
##됐으면
말해도
##특례
안되서
상회
선다
역력
##라이프
피워
##체계가
셔틀
완성했다
게시판에
발렌
본질적으로
공백을
솔루션을
##ult
집회는
##노의
일행은
기대하기
인센티브를
북중
##우면서
추천하는
##협을
힘내라
거지요
##ost
3월까지
서비스와
유부
발의한
직무를
상태는
##놔야
공수처는
원대
##소릴
12월에
포인트가
끈을
시국선언
숨지게
요구해
2곳
낮출
누구보다도
흐려
##밖에는
##폐기물
곳곳
소비자는
다졌다
늙어
하이트
형성하는
사나이
##있어도
현재와
대청
기초연금
꾸짖
##옵션
따스
양복
식용
온전한
사람이면
초유의
시민은
EC
조짐을
##사적
쓰일
녀석은
실직
영웅이
##시켜주는
배우들이
프레임을
메르스때
제휴를
차익
##거여
피땀
##거도
고칠
본부장
179
밀레
권의
##번의
##것보다
##미사일방어
이춘
자자
##짐을
부담하는
나왔지만
디자인은
##알이
잡혔
때문이지
아프게
영국이
##114
부담해야
프로젝트에
2025년
전유
고위직
니나
이유에서다
빡대가리
특조
계속할
새끼를
LIG
흔들며
500m
이분은
처지가
##공장에서
연금을
확정한
##병원으로
젠장
일본하고
##식민
소통과
어리둥
대통령선거
치료하는
비대위
달창들아
타임스
고급스러운
##혜택을
생산과
걸맞은
뒤돌아
보고싶다
하루는
화순
어벤
이찬
주식은
글쓰기
작년보다
##ㅠㅠㅠㅠㅠㅠㅠㅠ
제재가
인자
좌측
현재도
##사업부
이코노미
##나는데
나아가는
온도가
울리는
##병원의
북적
생겼는데
##경남
엄마도
하셔야
당에서
바뀌어야
쇼트트랙
변환
않겠나
요구는
시드니
##스태
내려진
잦아
##정화
항목을
##미네
수십만
독일이
것인가를
단호한
배짱
멀었다
전역에
##야가
농락
버리면
##줄기
미나
이산화탄소
이용하지
##자에서
따랐다
신문이
##부대가
남자도
대대로
##선발
달았다
제격
지팡
될텐데
##새를
##많고
일관되게
건보료
레전
이전과
커피숍
숙이고
권총
뚱뚱
오마이뉴스
개수작
가문의
어설픈
공보
자격증을
규모와
범죄는
국민성
연동형
관계도
나온다고
렉서스
##소이다
##평론가
##심하게
추가해
제한하고
정반대
튼튼한
좆선
##소리도
여러모로
##폴리스
본질적인
도시개발
##구석에
잡아당
질병을
대표팀의
봤습니다
와중에도
##서운
##치니
설문조사를
시행한
사로잡혀
듣보잡
보였지만
안철수가
시에서
지민
스트리
쥐새끼
##언정
주민은
주접
누구인가
여가부
피해자들이
찍으면
다중
뿐이고
빠지
잘한거
여군
난이
##배출
말미암아
너부터
##타와
##왜곡
열매를
18세기
상승할
치러야
순간적으로
점포를
비교하는
사인을
선이
##인들과
대물
##전파
행복해
##피고
##먹어서
그때가
자주국방
부끄럽지도
학생에게
복귀를
얻는다
개최된다
보는게
자라고
고향으로
황씨
비난이
다하지
빛깔
일이야
현지에
가운데는
치밀한
올려다
도봉
편승
가드
##다섯
있단다
위험성이
신경이
2주간
사로잡았다
무더기로
연주를
장은
##법에서
##더니만
##협이
성공하는
김정은을
뷔페
크기로
##원하는
쪼다
이나라의
짚고
##밖으로
저지를
토대를
청주시
메르세데스
알제
품질이
##혜의
##상태로
압력이
특위
##금액을
폐쇄회로
코리안
번번이
통폐
연연
영역이
이뻐
##레이트
동맹을
감사드립니다
지역이다
##타자로
중앙에
펜션
살아도
과목을
렌즈
둘레
물음
넘어야
##달에
공시지가
둘을
번영
떨쳐
편하고
강남역
ㄱㄱ
##승이
공장에
의료진이
소박한
집회가
자기자본
그깟
콘셉트
것이라며
##ㅌㅌ
##주택을
상징적
한자리에
누군데
개독교
##고교
많이들
하든지
감사드린다
동유럽
##연구회
않겠냐
84㎡
##원에게
##7만
위기는
팩트체크
##자너
구조는
근거한
무섭고
위장전
##척의
##수준의
캐릭터가
##회사와
##ctv
4분의
알아봤다
##관계자는
##리히
불과해
체인지
만들어져
기사만
위에는
주장해
자신들을
1명은
질환을
환상적인
##7조
금속노조
시도하는
##탄도미사일
개업
취급을
되려
양측의
에고
것들도
대상의
철학과
##에의
##치아
드러낸다
빨갱이들은
재산은
청중
주민을
##그때
부가가
최연소
##텍은
있을텐데
서북
해답
##방법은
보통의
1968년
욕나온다
국기
공정성
동등
태운
나가기
하아
개한민국
##줄에
아니었지만
##가수
금수
원전을
##불교
구금
자급
##파운드
문제인데
##곡히
안되네
식이
제공되는
기법을
관객이
불가피할
상상력을
끝낼
##쳤다는
##파크에서
##크루
맞서는
면책
유소년
주식이
경이
솔선수
유튜브에
쓰리
유체
부탁한다
거면
국회법
어깨가
손익
기다린다
늦었다
피서
제목은
군대에
동두
허위로
니혼
도전한다
AD
즉위
AFP
##꼴로
MD
##킴이
모델의
어촌
##경색
트러블
동독
##비시
잠깐만
자취를
원스톱
##쓰레
주기도
좋아하네
안하무
작용한
시장도
수준까지
##덕을
검색어
3기
별개의
식재
시도는
필요하다면
##사면
공교롭게도
경보
##용수
결혼할
기획한
외국인들이
참치
세계최
쳐다보고
form
##장수
경우의
비판에
간격으로
바친
입힌
원고를
크리에
##체제로
follow
##들이기
피아니스트
쏟아지고
성장률을
##예선
주도적으로
검찰조사
연결돼
타인에게
해결되지
저기서
##팀으로
하더만
비주류
타서
괴롭히
##증진
경합
안가는
긴밀히
되었으며
##등급을
일본이나
##하시지
쏟고
광장에
아반
내년에도
여성단체
학창시절
##ne
##클린
##00만원의
송중
해결책
이야기했다
지배를
생명보험
그곳을
개편을
바글
기울였다
미소가
##남을
##지만은
고착
약이
전량
데스크
##오냐
쇠고
##집안
##할꺼
##지는게
밟았다
흑자를
고향에
문씨가
환한
수요에
소유권
##룸에서
##인거야
##방과
한국만
스프링캠프
패스를
부과하는
##놨네
정상으로
산업은
남성과
##하지마세요
국가보안법
##기구를
##연구소가
아시는
극좌
소년은
독도는
지역인
시끄러
##벽이
도전에
죽창들고
부장판사는
유배
대응하고
창출하는
자들의
밝혔지만
생각의
##성공
인천국제공항
참고인
부채를
너네들
애견
##너가
최씨의
다가오고
##주의적인
눈치만
리본
##버림
##담배
해주지
통한다
결과와
겨울을
똥싸
경기의
청소년의
##ula
직접적
부족해서
서늘
수갑
상승세가
끝나자
김범
잘되는
논의한
느긋
운영하며
직원들과
가식
주둥이로
xx
인물들이
장군이
견고
선거철
##연극
지속되는
두말
선정하고
주거환경
도약을
요기
저울
음악의
##오로
조건은
채택한
개꿀
김규
단순하게
집안에서
작성된
문제삼
##손손
##제일제
못알아
절실히
한국여자
성과에
##사서
지대
##팔고
이전까지
덤벼
점쳐
##자한당
지방을
숙성
폐막
##해주길
##수산식품
평화로운
받아들여야
##기구가
중장년
국민참여
6개월간
아리스
가는구나
전라도가
거론하며
변할
깨시민
##국가를
##바구니
감소하고
##수당을
##계속
백령
풍기는
10일까지
1박2일
미셸
바삭
정치권에서
반성을
비약
웃도는
##역시
저조
생태계를
박형
##페인
노동시장
정상을
##출자
##per
은행들이
추정하고
형사소송
또라
카테고
동기를
팔지
##우니까
소변
생산되는
교민
남기는
사실입니다
역동적인
선거의
해줘
제공을
내려가는
무릎꿇
100억원
싶었지만
##치는거
하기는
##t의
go
것부터
어긴
##사건에
놈이다
자원이
달라붙
##료와
일반화
되네
민주화를
거침없이
개최해
일하기
##여부
찾아오
무수한
##도없는
##동반
##내려고
##왔네
얼마를
관계자의
주파수
이기지
##표시
도입할
보잉
분쟁이
연도
AM
군인들
죽어가
타이틀곡
##계획이
곰곰
구제금융
남녀가
장중
일축했다
저사람
##ver
장관도
고노
파묻
조씨는
경우다
출렁
재정비
병원은
##진압
헌혈
출연을
기자를
##르던
9월까지
아갈
##문도
여튼
대처를
국가들의
##뚜기
기대는
시뮬레이션
단점을
전파를
작품에서
단군
으뜸
드라마가
문제임
ICBM
초연
총장을
##애의
대표님
국가유공자
내려서
독일과
무식하고
사연이
##신가
대학생들이
알리지
신자유
##구역을
가량의
100프로
미군철수
##겨라
##혼을
투자자가
윤영
지방선거를
백성을
직행
타이틀을
##oon
아담
나기
입김
가정용
상황입니다
정당을
납득이
말아야지
동감
시설물
이병헌
전기가
미운
##ri
반대한
과정으로
잡혔다
상관없다
경부고속도로
조져
힘껏
동선
분향
##있네요
분신
118
개최할
아들인
5세
구조에
##문화재단
강화한
장만
##벤처기업
와일드
끝내기
콜로
##정보통신
고맙다고
돌아다니는
설레발
사돈
손흥민
##조직을
구축에
연립
순간이었다
병력을
썼던
##아닙
수도권에
추워
비싸다
어려움에
코끼리
20일부터
##사령관
##만큼의
구름이
이형
타기
조재
풀리지
빼앗긴
##집과
펴낸
의미있는
600여
주민들과
콘서트를
공자
분들에게
야단
업무방해
맞닿
위증
기관과
기여하는
예전엔
##검사가
애매한
일가족
##부수
##단지로
오르면서
판결했다
최태원
쏘는
입맛을
돌보는
파업에
##공신
##협회의
신경써
사악
심재철
뚜껑을
엔트리
양수
##면세점
가할
님은
돌봐
철판
팔리는
옛날부터
날이다
기가찬다
##플루엔자
수요는
조항이
갈래
중요한건
##하거든
가히
맞섰다
만년
둘로
요컨대
성악
##망한
관리와
깜깜
멈출
비현실
우리나라에서는
계세요
##민턴
서비스업
과학의
하는것도
독과
마을이
손녀
바빴
보건의료
공손
최승
떨리는
무겁게
진행한다고
중거리
계좌를
병원의
현상에
##nt
시켰다
일절
##코르
경제협력개발기구
갖출
##으실
풍선
##방사
진출이
분위기도
인식은
아크
재정을
지나갔다
기록했다고
대북정책
종목이
클렌징
대진
렌터
심포지엄
않니
##원이면
사유재산
여하
번째다
##르지오
기형
수하
지켜라
##비율을
비결은
선명한
건물주
깨달은
안종
입도
당했다고
##버터
이유만으로
목욕탕
거론되는
입건했다
시늉
##사키
돌아다니며
시설에
그룹은
뻘짓
ㅜㅜ
##격차
법한
뺨을
3년이
##리니까
까라
##아기
입다물고
수준하고는
매혹
중요한데
빠져나갈
##컴퓨터
정리하는
##햇다
뜨거워
수개월
측면도
일컬
닿지
마카
환자와
1백
설정하고
소품
##버리자
판매량은
안그래
선택해야
소속으로
이따금
빨강
표시했다
##6만
자재
정부로부터
##정부와
경북대
되살아
##만들기
보호무역
마카오
##탄생
남극
돌진
당신들의
노동의
좋을듯
##단체에
하느님의
남자친
##에어
가설
인정받는
넘버
떠올리게
소련의
날에는
반복적으로
먹던
넘어섰
멘토링
비용도
시공사
##9천
제동
##수무
##거라는
내역을
침공
##하셨어요
##근로자
울산의
수천만
##아들이
##시켜야한다
12월까지
비둘
세계와
외관
8조
이보
카자흐스탄
성실한
요르
세월호를
##칙을
소극적인
짓이다
##불에
##연계
선출된
안한다고
선고를
애비가
주는게
##퍼는
##하기엔
지구가
##인디
##급히
##그럼
핵폭탄
##치사
미흡한
링컨
##드린
##00원에
대출금
배어
##사건건
임명을
##말대로
순매도
수술이
잘못했다고
앞장서고
NY
지지하지
##디자
##등기
##난다고
공세
늦지
효자
144
양심은
밥상
위해서라면
눈의
시애
상대방에게
##가전
##했지요
깃발
##관광객
##려다가
##트륨
계열사인
조직과
스폰서
주석의
##쟁이들
어렵기
##주겠다
시즌이
시승
훤히
유니버
오호
믿냐
##편한
누구든지
온다고
폐하
망하면
출시할
우승한
성접
몰살
##플랜트
##확보
창출에
최측근
##우선
기쁘게
받자
짧고
우리동네
외치던
볼까
외양
뇌의
##제대로
##목숨
거짓을
50분
##권익
